{
  "version": "1.0",
  "truncation": {
    "direction": "Right",
    "max_length": 256,
    "strategy": "LongestFirst",
    "stride": 0
  },
  "padding": {
    "strategy": {
      "Fixed": 256
    },
    "direction": "Right",
    "pad_to_multiple_of": null,
    "pad_id": 0,
    "pad_type_id": 0,
    "pad_token": "[PAD]"
  },
  "added_tokens": [
    {
      "id": 0,
      "content": "[PAD]",
      "single_word": false,
      "lstrip": false,
      "rstrip": false,
      "normalized": false,
      "special": true
    },
    {
      "id": 1,
      "content": "[UNK]",
      "single_word": false,
      "lstrip": false,
      "rstrip": false,
      "normalized": false,
      "special": true
    },
    {
      "id": 2,
      "content": "[CLS]",
      "single_word": false,
      "lstrip": false,
      "rstrip": false,
      "normalized": false,
      "special": true
    },
    {
      "id": 3,
      "content": "[SEP]",
      "single_word": false,
      "lstrip": false,
      "rstrip": false,
      "normalized": false,
      "special": true
    },
    {
      "id": 4,
      "content": "[MASK]",
      "single_word": false,
      "lstrip": false,
      "rstrip": false,
      "normalized": false,
      "special": true
    }
  ],
  "normalizer": {
    "type": "BertNormalizer",
    "clean_text": true,
    "handle_chinese_chars": true,
    "strip_accents": null,
    "lowercase": false
  },
  "pre_tokenizer": {
    "type": "BertPreTokenizer"
  },
  "post_processor": {
    "type": "TemplateProcessing",
    "single": [
      {
        "SpecialToken": {
          "id": "[CLS]",
          "type_id": 0
        }
      },
      {
        "Sequence": {
          "id": "A",
          "type_id": 0
        }
      },
      {
        "SpecialToken": {
          "id": "[SEP]",
          "type_id": 0
        }
      }
    ],
    "pair": [
      {
        "SpecialToken": {
          "id": "[CLS]",
          "type_id": 0
        }
      },
      {
        "Sequence": {
          "id": "A",
          "type_id": 0
        }
      },
      {
        "SpecialToken": {
          "id": "[SEP]",
          "type_id": 0
        }
      },
      {
        "Sequence": {
          "id": "B",
          "type_id": 1
        }
      },
      {
        "SpecialToken": {
          "id": "[SEP]",
          "type_id": 1
        }
      }
    ],
    "special_tokens": {
      "[CLS]": {
        "id": "[CLS]",
        "ids": [
          2
        ],
        "tokens": [
          "[CLS]"
        ]
      },
      "[SEP]": {
        "id": "[SEP]",
        "ids": [
          3
        ],
        "tokens": [
          "[SEP]"
        ]
      }
    }
  },
  "decoder": {
    "type": "WordPiece",
    "prefix": "##",
    "cleanup": true
  },
  "model": {
    "type": "WordPiece",
    "unk_token": "[UNK]",
    "continuing_subword_prefix": "##",
    "max_input_chars_per_word": 100,
    "vocab": {
      "[PAD]": 0,
      "[UNK]": 1,
      "[CLS]": 2,
      "[SEP]": 3,
      "[MASK]": 4,
      ".": 5,
      "##을": 6,
      "##의": 7,
      ",": 8,
      "##이": 9,
      "##에": 10,
      "\"": 11,
      "'": 12,
      "##는": 13,
      "##를": 14,
      "##은": 15,
      "##가": 16,
      "(": 17,
      ")": 18,
      "##로": 19,
      "##한": 20,
      "##도": 21,
      "##일": 22,
      "##에서": 23,
      "##과": 24,
      "##년": 25,
      "##고": 26,
      "##으로": 27,
      "##인": 28,
      "이": 29,
      "있다": 30,
      "##다": 31,
      "##지": 32,
      "##와": 33,
      "1": 34,
      "수": 35,
      "##했다": 36,
      "고": 37,
      "2": 38,
      "##해": 39,
      "##월": 40,
      "##기": 41,
      "##하는": 42,
      "3": 43,
      "##이다": 44,
      "##하고": 45,
      "##만": 46,
      "##할": 47,
      "##시": 48,
      "##대": 49,
      "##리": 50,
      "##사": 51,
      "##자": 52,
      "전": 53,
      "·": 54,
      "한": 55,
      "##스": 56,
      "등": 57,
      "4": 58,
      "그": 59,
      "##서": 60,
      "##수": 61,
      "5": 62,
      "##주": 63,
      "##나": 64,
      "-": 65,
      "##어": 66,
      "있는": 67,
      "%": 68,
      "중": 69,
      "##전": 70,
      "##성": 71,
      "가": 72,
      "6": 73,
      "했다": 74,
      "##세": 75,
      "##진": 76,
      "##원": 77,
      "##면": 78,
      "##라": 79,
      "##된": 80,
      "##상": 81,
      "##동": 82,
      "##에게": 83,
      "##정": 84,
      "##부": 85,
      "##화": 86,
      "10": 87,
      "것": 88,
      "##적": 89,
      "정": 90,
      "유": 91,
      "김": 92,
      "7": 93,
      "##아": 94,
      "##소": 95,
      "##구": 96,
      "##회": 97,
      "##트": 98,
      "##차": 99,
      "##장": 100,
      "##게": 101,
      "8": 102,
      "제": 103,
      "##한다": 104,
      "신": 105,
      "##까지": 106,
      "##치": 107,
      "##조": 108,
      "것으로": 109,
      "##선": 110,
      "##드": 111,
      "##하게": 112,
      "##비": 113,
      "##산": 114,
      "대한": 115,
      "##명": 116,
      "9": 117,
      "##제": 118,
      "며": 119,
      "##에는": 120,
      "##우": 121,
      "##개": 122,
      "##보": 123,
      "##며": 124,
      "내": 125,
      "대": 126,
      "는": 127,
      "안": 128,
      "말했다": 129,
      "후": 130,
      "주": 131,
      "##위": 132,
      "##미": 133,
      "시": 134,
      "미": 135,
      "서울": 136,
      "박": 137,
      "사": 138,
      "##히": 139,
      "더": 140,
      "##형": 141,
      "##야": 142,
      "##들이": 143,
      "두": 144,
      "한국": 145,
      "##당": 146,
      "오": 147,
      "위해": 148,
      "##마": 149,
      "##신": 150,
      "##분": 151,
      "##호": 152,
      "이후": 153,
      "이날": 154,
      "때": 155,
      "조": 156,
      "##재": 157,
      "~": 158,
      "원": 159,
      "##하": 160,
      "##관": 161,
      "##르": 162,
      "밝혔다": 163,
      "한다": 164,
      "지난": 165,
      "미국": 166,
      "##국": 167,
      "함께": 168,
      "아": 169,
      "##하며": 170,
      "##적인": 171,
      "통해": 172,
      "19": 173,
      "##용": 174,
      "##여": 175,
      "다": 176,
      "지": 177,
      "일": 178,
      "##니": 179,
      "나": 180,
      "##계": 181,
      "##하지": 182,
      "기": 183,
      "##영": 184,
      "##하였다": 185,
      "12": 186,
      "11": 187,
      "##오": 188,
      "##연": 189,
      "비": 190,
      "강": 191,
      "보": 192,
      "##경": 193,
      "의": 194,
      "##하기": 195,
      "장": 196,
      "##단": 197,
      "서": 198,
      "말": 199,
      "##식": 200,
      "그는": 201,
      "##하여": 202,
      "부": 203,
      "##타": 204,
      "##러": 205,
      "##중": 206,
      "같은": 207,
      "20": 208,
      "##던": 209,
      "##적으로": 210,
      "에": 211,
      "이라고": 212,
      "##모": 213,
      "##방": 214,
      "##유": 215,
      "##루": 216,
      "뒤": 217,
      "구": 218,
      "##승": 219,
      "##무": 220,
      "##파": 221,
      "일본": 222,
      "##됐다": 223,
      "이어": 224,
      "공": 225,
      "중국": 226,
      "은": 227,
      "##현": 228,
      "소": 229,
      "##보다": 230,
      "##문": 231,
      "##종": 232,
      "해": 233,
      "로": 234,
      "##부터": 235,
      "##안": 236,
      "대해": 237,
      "무": 238,
      "##요": 239,
      "경기": 240,
      "##법": 241,
      "##석": 242,
      "상": 243,
      "##권": 244,
      "##실": 245,
      "##민": 246,
      "모": 247,
      "세": 248,
      "재": 249,
      "##되었다": 250,
      "및": 251,
      "오후": 252,
      "A": 253,
      "영화": 254,
      "성": 255,
      "##군": 256,
      "##크": 257,
      "동": 258,
      "하": 259,
      "##점": 260,
      "라고": 261,
      "##체": 262,
      "또": 263,
      "다른": 264,
      "18": 265,
      "##공": 266,
      "약": 267,
      "최": 268,
      "것이다": 269,
      "가장": 270,
      "마": 271,
      "##포": 272,
      "##에서는": 273,
      "문": 274,
      "첫": 275,
      "##물": 276,
      "##들은": 277,
      "##지만": 278,
      "하지만": 279,
      "자": 280,
      "##즈": 281,
      "##었다": 282,
      "##들": 283,
      "이상": 284,
      "남": 285,
      "0": 286,
      "바": 287,
      "##행": 288,
      "불": 289,
      "##카": 290,
      "총": 291,
      "연": 292,
      "##레": 293,
      "##금": 294,
      "도": 295,
      "양": 296,
      "##프": 297,
      "이번": 298,
      "30": 299,
      "를": 300,
      "지난해": 301,
      "##강": 302,
      "##2": 303,
      "##억": 304,
      "15": 305,
      "##려": 306,
      "##양": 307,
      "##준": 308,
      "현재": 309,
      "##질": 310,
      "모두": 311,
      "##노": 312,
      "분": 313,
      "반": 314,
      "##1": 315,
      "선": 316,
      "##된다": 317,
      "##이었다": 318,
      "##토": 319,
      "##건": 320,
      "문제": 321,
      "저": 322,
      "##생": 323,
      "때문에": 324,
      "##간": 325,
      "우": 326,
      "거": 327,
      "##학": 328,
      "##천": 329,
      "##였다": 330,
      "##운": 331,
      "##교": 332,
      "##심": 333,
      "할": 334,
      "것이": 335,
      "북한": 336,
      "##급": 337,
      "##역": 338,
      "##바": 339,
      "열린": 340,
      "당시": 341,
      "시즌": 342,
      "##들의": 343,
      "##린": 344,
      "잘": 345,
      "당": 346,
      "##터": 347,
      "##청": 348,
      "##면서": 349,
      "것은": 350,
      "최근": 351,
      "차": 352,
      "배": 353,
      "##내": 354,
      "큰": 355,
      "세계": 356,
      "16": 357,
      "간": 358,
      "##티": 359,
      "파": 360,
      "초": 361,
      "##e": 362,
      "따라": 363,
      "##되는": 364,
      "데": 365,
      "경우": 366,
      "올해": 367,
      "그러나": 368,
      "##에도": 369,
      "##란": 370,
      "등을": 371,
      "없다": 372,
      "발": 373,
      "##이나": 374,
      "위한": 375,
      "##디": 376,
      "##태": 377,
      "진": 378,
      "##직": 379,
      "##하면서": 380,
      "많은": 381,
      "다시": 382,
      "여": 383,
      "##작": 384,
      "하는": 385,
      "##했고": 386,
      "있었다": 387,
      "따르면": 388,
      "##들을": 389,
      "기록": 390,
      "과": 391,
      "것을": 392,
      "17": 393,
      "알": 394,
      "##코": 395,
      "##희": 396,
      "13": 397,
      "##감": 398,
      "S": 399,
      "14": 400,
      "##배": 401,
      "##속": 402,
      "단": 403,
      "##하다": 404,
      "포": 405,
      "피": 406,
      "##병": 407,
      "된다": 408,
      "결과": 409,
      "##키": 410,
      "경": 411,
      "스": 412,
      "##업": 413,
      "B": 414,
      "##하면": 415,
      "##발": 416,
      "우리": 417,
      "배우": 418,
      "##임": 419,
      "##해야": 420,
      "》": 421,
      "##《": 422,
      "##되어": 423,
      "##력": 424,
      "##환": 425,
      "25": 426,
      "##될": 427,
      "노": 428,
      "##창": 429,
      "##번": 430,
      "명": 431,
      "위": 432,
      "##만원": 433,
      "##거": 434,
      "사업": 435,
      "의원": 436,
      "##m": 437,
      "경제": 438,
      "국내": 439,
      "인": 440,
      "##판": 441,
      "##류": 442,
      "##남": 443,
      "입": 444,
      ":": 445,
      "##설": 446,
      "산": 447,
      "##두": 448,
      "##데": 449,
      "##패": 450,
      "실": 451,
      "대표": 452,
      "어": 453,
      "지역": 454,
      "특히": 455,
      "##훈": 456,
      "##통": 457,
      "##o": 458,
      "C": 459,
      "윤": 460,
      "##규": 461,
      "관계자": 462,
      "영": 463,
      "##되고": 464,
      "##량": 465,
      "?": 466,
      "않았다": 467,
      "역": 468,
      "##철": 469,
      "손": 470,
      "방": 471,
      "관련": 472,
      "기업": 473,
      "##피": 474,
      "##그": 475,
      "##복": 476,
      "##층": 477,
      "##억원": 478,
      "사용": 479,
      "##출": 480,
      "##돼": 481,
      "또한": 482,
      "##래": 483,
      "국가": 484,
      "##색": 485,
      "##집": 486,
      "건": 487,
      "없는": 488,
      "##s": 489,
      "##반": 490,
      "삼성": 491,
      "##으며": 492,
      "##엔": 493,
      "##이며": 494,
      "##3": 495,
      "됐다": 496,
      "달": 497,
      "##온": 498,
      "심": 499,
      "방송": 500,
      "게": 501,
      "모든": 502,
      "속": 503,
      "와": 504,
      "##격": 505,
      "번": 506,
      "외": 507,
      "##했던": 508,
      "리": 509,
      "카": 510,
      "K": 511,
      "##했지만": 512,
      "2016": 513,
      "자신의": 514,
      "##P": 515,
      "줄": 516,
      "군": 517,
      "##저": 518,
      "##위원회": 519,
      "##등": 520,
      "조사": 521,
      "##언": 522,
      "결정": 523,
      "사진": 524,
      "모습": 525,
      "화": 526,
      "백": 527,
      "많이": 528,
      "##론": 529,
      "날": 530,
      "매": 531,
      "아니라": 532,
      "SK": 533,
      "##년에": 534,
      "2015": 535,
      "동안": 536,
      "예": 537,
      "이에": 538,
      "개": 539,
      "임": 540,
      "##림": 541,
      "##투": 542,
      "##브": 543,
      "대통령": 544,
      "타": 545,
      "송": 546,
      "정부": 547,
      "LG": 548,
      "##씨": 549,
      "기술": 550,
      "볼": 551,
      "호": 552,
      "M": 553,
      "##네": 554,
      "다음": 555,
      "##버": 556,
      "/": 557,
      "사건": 558,
      "##씨는": 559,
      "적": 560,
      "##편": 561,
      "##리그": 562,
      "같다": 563,
      "승리": 564,
      "가운데": 565,
      "생각": 566,
      "교": 567,
      "##길": 568,
      "하고": 569,
      "지원": 570,
      "그리고": 571,
      "##근": 572,
      "##후": 573,
      "일부": 574,
      "##각": 575,
      "시작": 576,
      "21": 577,
      "올": 578,
      "개발": 579,
      "23": 580,
      "새": 581,
      "##본": 582,
      "24": 583,
      "##목": 584,
      "##았다": 585,
      "투자": 586,
      "##합": 587,
      "##년생": 588,
      "##열": 589,
      "##음": 590,
      "##a": 591,
      "감": 592,
      "##졌다": 593,
      "##팀": 594,
      "씨": 595,
      "채": 596,
      "만": 597,
      "하나": 598,
      "##처럼": 599,
      "##i": 600,
      "22": 601,
      "감독": 602,
      "한편": 603,
      "열": 604,
      "물": 605,
      "진행": 606,
      "##료": 607,
      "시장": 608,
      "못": 609,
      "왕": 610,
      "##지는": 611,
      "##라는": 612,
      "에서": 613,
      "100": 614,
      "##y": 615,
      "##절": 616,
      "##광": 617,
      "##초": 618,
      "점": 619,
      "될": 620,
      "등이": 621,
      "##워": 622,
      "##왕": 623,
      "각": 624,
      "##더": 625,
      "본": 626,
      "여성": 627,
      "현": 628,
      "##든": 629,
      "##박": 630,
      "##령": 631,
      "전했다": 632,
      "##처": 633,
      "##난": 634,
      "##는데": 635,
      "홍": 636,
      "아이": 637,
      "##주의": 638,
      "라는": 639,
      "사람": 640,
      "경찰": 641,
      "국": 642,
      "27": 643,
      "##점을": 644,
      "##스트": 645,
      "국제": 646,
      "팀": 647,
      "##매": 648,
      "민": 649,
      "##기를": 650,
      "D": 651,
      "28": 652,
      "트럼프": 653,
      "회사": 654,
      "2017": 655,
      "26": 656,
      "새로운": 657,
      "계속": 658,
      "##져": 659,
      "2018": 660,
      "##t": 661,
      "등의": 662,
      "황": 663,
      "북": 664,
      "좋은": 665,
      "이를": 666,
      "직접": 667,
      "추": 668,
      "관": 669,
      "…": 670,
      "정도": 671,
      "연구": 672,
      "##예": 673,
      "롯데": 674,
      "##라고": 675,
      "보고": 676,
      "삼": 677,
      "살": 678,
      "##T": 679,
      "##까": 680,
      "있어": 681,
      "판매": 682,
      "##입": 683,
      "들어": 684,
      "##결": 685,
      "P": 686,
      "활동": 687,
      "##증": 688,
      "최대": 689,
      "##족": 690,
      "이라며": 691,
      "다양한": 692,
      "이런": 693,
      "G": 694,
      "청": 695,
      "##n": 696,
      "공격": 697,
      "국민": 698,
      "뜻": 699,
      "##평": 700,
      "않고": 701,
      "받았다": 702,
      "##별": 703,
      "여러": 704,
      "서비스": 705,
      "##A": 706,
      "##위를": 707,
      "최고": 708,
      "##시간": 709,
      "29": 710,
      "내용": 711,
      "##표": 712,
      "##망": 713,
      "##g": 714,
      "오전": 715,
      "앞서": 716,
      "##이라는": 717,
      "애": 718,
      "##락": 719,
      "되었다": 720,
      "##이라고": 721,
      "종": 722,
      "##곡": 723,
      "##범": 724,
      "금": 725,
      "막": 726,
      "50": 727,
      "##테": 728,
      "##릴": 729,
      "평가": 730,
      "코": 731,
      "선수": 732,
      "선발": 733,
      "L": 734,
      "##명이": 735,
      "토": 736,
      "##살": 737,
      "##G": 738,
      "준비": 739,
      "친": 740,
      "전체": 741,
      "##들에게": 742,
      "않은": 743,
      "사회": 744,
      "##립": 745,
      "F": 746,
      "##에서도": 747,
      "부산": 748,
      "된": 749,
      "수사": 750,
      "##렸다": 751,
      "##E": 752,
      "영국": 753,
      "운영": 754,
      "천": 755,
      "받고": 756,
      "제품": 757,
      "프랑스": 758,
      "##경기": 759,
      "예정이다": 760,
      "2014": 761,
      "T": 762,
      "온": 763,
      "계획": 764,
      "있으며": 765,
      "역시": 766,
      "##백": 767,
      "허": 768,
      "시간": 769,
      "청와대": 770,
      "정책": 771,
      "##F": 772,
      "프로그램": 773,
      "주장": 774,
      "도시": 775,
      "검찰": 776,
      "##했다고": 777,
      "##해서": 778,
      "추가": 779,
      "결국": 780,
      "번째": 781,
      "개인": 782,
      "기준": 783,
      "##골": 784,
      "주요": 785,
      "##담": 786,
      "만나": 787,
      "만에": 788,
      "글": 789,
      "##냐": 790,
      "처음": 791,
      "##O": 792,
      "##탄": 793,
      "국회": 794,
      "감독은": 795,
      "공개": 796,
      "##츠": 797,
      "##추": 798,
      "##기도": 799,
      "작품": 800,
      "또는": 801,
      "규모": 802,
      "40": 803,
      "대한민국": 804,
      "교육": 805,
      "골": 806,
      "조선": 807,
      "않": 808,
      "E": 809,
      "해외": 810,
      "법": 811,
      "집": 812,
      "변": 813,
      "금융": 814,
      "치": 815,
      "제공": 816,
      "레": 817,
      "투": 818,
      "각각": 819,
      "라며": 820,
      "##찬": 821,
      "기간": 822,
      "##년부터": 823,
      "입장": 824,
      "통": 825,
      "발표": 826,
      "##쿠": 827,
      "##랑": 828,
      "역할": 829,
      "##봉": 830,
      "##장을": 831,
      "상황": 832,
      "라": 833,
      "러시아": 834,
      "순": 835,
      "##외": 836,
      "전국": 837,
      "걸": 838,
      "보인다": 839,
      "없이": 840,
      "##L": 841,
      "결": 842,
      "##약": 843,
      "장관": 844,
      "##친": 845,
      "난": 846,
      "##D": 847,
      "##er": 848,
      "##독": 849,
      "상태": 850,
      "있다는": 851,
      "##S": 852,
      "추진": 853,
      "게임": 854,
      "사이": 855,
      "설명했다": 856,
      "독일": 857,
      "##이닝": 858,
      "##M": 859,
      "생산": 860,
      "##변": 861,
      "계": 862,
      "제작": 863,
      "##품": 864,
      "##순": 865,
      "##성을": 866,
      "2013": 867,
      "##B": 868,
      "##그룹": 869,
      "##자가": 870,
      "##4": 871,
      "참여": 872,
      "돈": 873,
      "성장": 874,
      "죽": 875,
      "H": 876,
      "몸": 877,
      "때문이다": 878,
      "높은": 879,
      "##와의": 880,
      "##런": 881,
      "오는": 882,
      "두산": 883,
      "확인": 884,
      "##들과": 885,
      "##일부터": 886,
      "길": 887,
      "N": 888,
      "음악": 889,
      "극": 890,
      "밀": 891,
      "##개월": 892,
      "앞": 893,
      "##퍼": 894,
      "대통령은": 895,
      "##총": 896,
      "##항": 897,
      "받은": 898,
      "##명을": 899,
      "어떤": 900,
      "참": 901,
      "##되지": 902,
      "지난달": 903,
      "편": 904,
      "유지": 905,
      "##극": 906,
      "기존": 907,
      "사랑": 908,
      "메": 909,
      "##채": 910,
      "##덕": 911,
      "버": 912,
      "##습": 913,
      "##윤": 914,
      "행사": 915,
      "##자는": 916,
      "##너": 917,
      "쓰": 918,
      "##송": 919,
      "받아": 920,
      "공동": 921,
      "태": 922,
      "##대로": 923,
      "인사": 924,
      "##로서": 925,
      "눈": 926,
      "##k": 927,
      "##하자": 928,
      "의미": 929,
      "관리": 930,
      "##달": 931,
      "연기": 932,
      "담": 933,
      "기대": 934,
      "##u": 935,
      "있고": 936,
      "강화": 937,
      "인천": 938,
      "##시장": 939,
      "알려졌다": 940,
      "있을": 941,
      "W": 942,
      "31": 943,
      "확대": 944,
      "##메": 945,
      "_": 946,
      "수준": 947,
      "##명의": 948,
      "##향": 949,
      "##액": 950,
      "무대": 951,
      "유럽": 952,
      "성공": 953,
      "##울": 954,
      "찾아": 955,
      "적용": 956,
      "않는다": 957,
      "지금": 958,
      "대회": 959,
      "드라마": 960,
      "기록했다": 961,
      "출신": 962,
      "만들어": 963,
      "##불": 964,
      "대부분": 965,
      "아닌": 966,
      "##개의": 967,
      "##장은": 968,
      "##이자": 969,
      "##하던": 970,
      "##돌": 971,
      "돌": 972,
      "못했다": 973,
      "설": 974,
      "아들": 975,
      "문화": 976,
      "분석": 977,
      "##링": 978,
      "##날": 979,
      "##5": 980,
      "네": 981,
      "차량": 982,
      "for": 983,
      "##l": 984,
      "##사를": 985,
      "축구": 986,
      "##R": 987,
      "데뷔": 988,
      "2012": 989,
      "##p": 990,
      "현지": 991,
      "##혜": 992,
      "평": 993,
      "이미": 994,
      "##년간": 995,
      "예정": 996,
      "있다고": 997,
      "##북": 998,
      "공식": 999,
      "정치": 1000,
      "복": 1001,
      "##겠다": 1002,
      "I": 1003,
      "프로": 1004,
      "부분": 1005,
      "너무": 1006,
      "##볼": 1007,
      "##겨": 1008,
      "##30": 1009,
      "##름": 1010,
      "여자": 1011,
      "방송된": 1012,
      "면서": 1013,
      "마련": 1014,
      "##일까지": 1015,
      "이용": 1016,
      "##함": 1017,
      "우승": 1018,
      "##숙": 1019,
      "##말": 1020,
      "연속": 1021,
      "##갈": 1022,
      "##애": 1023,
      "##거나": 1024,
      "##커": 1025,
      "대학": 1026,
      "크게": 1027,
      "앞으로": 1028,
      "남자": 1029,
      "않는": 1030,
      "모델": 1031,
      "##효": 1032,
      "권": 1033,
      "대상": 1034,
      "과거": 1035,
      "의해": 1036,
      "마지막": 1037,
      "자리": 1038,
      "후보": 1039,
      "있도록": 1040,
      "루": 1041,
      "##하기로": 1042,
      "악": 1043,
      "요": 1044,
      "먹": 1045,
      "이야기": 1046,
      "##사업": 1047,
      "##익": 1048,
      "##로부터": 1049,
      "반대": 1050,
      "미국의": 1051,
      "열렸다": 1052,
      "광": 1053,
      "리그": 1054,
      "진출": 1055,
      "##탈": 1056,
      "선거": 1057,
      "변화": 1058,
      "##K": 1059,
      "아직": 1060,
      "##슨": 1061,
      "포함": 1062,
      "책": 1063,
      "V": 1064,
      "사실": 1065,
      "##술": 1066,
      "##6": 1067,
      "##에선": 1068,
      "출연": 1069,
      "폭": 1070,
      "전쟁": 1071,
      "대통령이": 1072,
      "사고": 1073,
      "R": 1074,
      "##빈": 1075,
      "패": 1076,
      "출시": 1077,
      "##&": 1078,
      "관계": 1079,
      "증": 1080,
      "이하": 1081,
      "자신": 1082,
      "중앙": 1083,
      "거래": 1084,
      "##mula": 1085,
      "아니다": 1086,
      "대비": 1087,
      "그룹": 1088,
      "촬영": 1089,
      "요구": 1090,
      "##렌": 1091,
      "##션": 1092,
      "생": 1093,
      "이는": 1094,
      "독": 1095,
      "##리는": 1096,
      "창": 1097,
      "방문": 1098,
      "소속": 1099,
      "팔": 1100,
      "##축": 1101,
      "##센터": 1102,
      "발전": 1103,
      "야": 1104,
      "산업": 1105,
      "##km": 1106,
      "되": 1107,
      "현대": 1108,
      "한화": 1109,
      "가족": 1110,
      "아버지": 1111,
      "직": 1112,
      "특": 1113,
      "기회": 1114,
      "이라는": 1115,
      "##쳐": 1116,
      "생활": 1117,
      "같이": 1118,
      "##율": 1119,
      "전문": 1120,
      "그런": 1121,
      "해당": 1122,
      "용": 1123,
      "총리": 1124,
      "##하기도": 1125,
      "##긴": 1126,
      "딸": 1127,
      "수도": 1128,
      "브랜드": 1129,
      "바로": 1130,
      "##록": 1131,
      "언론": 1132,
      "귀": 1133,
      "평균": 1134,
      "##거리": 1135,
      "더욱": 1136,
      "##례": 1137,
      "집중": 1138,
      "##완": 1139,
      "##케": 1140,
      "베": 1141,
      "##녀": 1142,
      "노력": 1143,
      "##습니다": 1144,
      "조직": 1145,
      "##C": 1146,
      "##왔다": 1147,
      "이유": 1148,
      "승": 1149,
      "인정": 1150,
      "##른": 1151,
      "##냈다": 1152,
      "##업체": 1153,
      "상대": 1154,
      "대표는": 1155,
      "##했으며": 1156,
      "##섭": 1157,
      "필요": 1158,
      "KBO": 1159,
      "안전": 1160,
      "자유": 1161,
      "##력을": 1162,
      "회장": 1163,
      "##암": 1164,
      "참가": 1165,
      "갖고": 1166,
      "대신": 1167,
      "않다": 1168,
      "##책": 1169,
      "하루": 1170,
      "만큼": 1171,
      "없었다": 1172,
      "##도록": 1173,
      "결혼": 1174,
      "##안타": 1175,
      "활약": 1176,
      "]": 1177,
      "일반": 1178,
      "##al": 1179,
      "사람이": 1180,
      "있던": 1181,
      "##쪽": 1182,
      "##성이": 1183,
      "[": 1184,
      "근": 1185,
      "글로벌": 1186,
      "피해": 1187,
      "##기업": 1188,
      "수출": 1189,
      "도입": 1190,
      "특별": 1191,
      "설치": 1192,
      "함": 1193,
      "##손": 1194,
      "선택": 1195,
      "최종": 1196,
      "출": 1197,
      "식": 1198,
      "정부가": 1199,
      "2010": 1200,
      "구성": 1201,
      "##번째": 1202,
      "J": 1203,
      "##슬": 1204,
      "등에": 1205,
      "##or": 1206,
      "학": 1207,
      "개선": 1208,
      "##으나": 1209,
      "##되면서": 1210,
      "먼저": 1211,
      "표현": 1212,
      "##곤": 1213,
      "가수": 1214,
      "출전": 1215,
      "교수": 1216,
      "2011": 1217,
      "##50": 1218,
      "인상": 1219,
      "##분기": 1220,
      "이동": 1221,
      "달리": 1222,
      "경쟁": 1223,
      "##취": 1224,
      "홈런": 1225,
      "키": 1226,
      "##혁": 1227,
      "반면": 1228,
      "발생": 1229,
      "마음": 1230,
      "##올": 1231,
      "페": 1232,
      "영상": 1233,
      "고려": 1234,
      "##년대": 1235,
      "##일에": 1236,
      "MBC": 1237,
      "내가": 1238,
      "##권을": 1239,
      "##균": 1240,
      "터": 1241,
      "##지를": 1242,
      "혐의로": 1243,
      "학교": 1244,
      "항": 1245,
      "##자로": 1246,
      "경영": 1247,
      "오늘": 1248,
      "분위기": 1249,
      "잡": 1250,
      "##on": 1251,
      "##스타": 1252,
      "건설": 1253,
      "##r": 1254,
      "##폭": 1255,
      "들": 1256,
      "##c": 1257,
      "##으면": 1258,
      "##씩": 1259,
      "시스템": 1260,
      "매우": 1261,
      "지방": 1262,
      "논의": 1263,
      "문재인": 1264,
      "병": 1265,
      "업무": 1266,
      "##년까지": 1267,
      "##기가": 1268,
      "##곳": 1269,
      "해결": 1270,
      "##헌": 1271,
      "투수": 1272,
      "##기에": 1273,
      "예상": 1274,
      "가지": 1275,
      "##10": 1276,
      "구조": 1277,
      "절": 1278,
      "##블": 1279,
      "##삼": 1280,
      "##찰": 1281,
      "##하겠다": 1282,
      "올림픽": 1283,
      "급": 1284,
      "증가": 1285,
      "농": 1286,
      "대구": 1287,
      "정보": 1288,
      "자동차": 1289,
      "##협회": 1290,
      "광주": 1291,
      "누": 1292,
      "##이고": 1293,
      "##이라": 1294,
      "##7": 1295,
      "##막": 1296,
      "##움": 1297,
      "자체": 1298,
      "선정": 1299,
      "개최": 1300,
      "커": 1301,
      "TV": 1302,
      "아시아": 1303,
      "있지만": 1304,
      "연결": 1305,
      "목": 1306,
      "노래": 1307,
      "##상을": 1308,
      "##씨가": 1309,
      "##밀": 1310,
      "##자를": 1311,
      "##악": 1312,
      "의견": 1313,
      "어떻게": 1314,
      "##ar": 1315,
      "후반": 1316,
      "##충": 1317,
      "헤": 1318,
      "나라": 1319,
      "물론": 1320,
      "인해": 1321,
      "60": 1322,
      "훈련": 1323,
      "표": 1324,
      "형": 1325,
      "상대로": 1326,
      "아파트": 1327,
      "과정에서": 1328,
      "인구": 1329,
      "위치한": 1330,
      "##홍": 1331,
      "외국인": 1332,
      "설명": 1333,
      "되는": 1334,
      "##풍": 1335,
      "섬": 1336,
      "##하였고": 1337,
      "영향을": 1338,
      "경기도": 1339,
      "올라": 1340,
      "##였던": 1341,
      "O": 1342,
      "다음과": 1343,
      "가진": 1344,
      "합": 1345,
      "##산업": 1346,
      "##b": 1347,
      "환": 1348,
      "디": 1349,
      "밤": 1350,
      "고객": 1351,
      "합의": 1352,
      "조치": 1353,
      "##칭": 1354,
      "과정": 1355,
      "##X": 1356,
      "역사": 1357,
      "2000": 1358,
      "##스는": 1359,
      "인기": 1360,
      "##머": 1361,
      "향": 1362,
      "판단": 1363,
      "##팅": 1364,
      "나서": 1365,
      "환경": 1366,
      "KIA": 1367,
      "곡": 1368,
      "##∼": 1369,
      "##플": 1370,
      "##기관": 1371,
      "현장": 1372,
      "개봉": 1373,
      "판": 1374,
      "핵": 1375,
      "NC": 1376,
      "협력": 1377,
      "##글": 1378,
      "제기": 1379,
      "##레이": 1380,
      "정부는": 1381,
      "2008": 1382,
      "별": 1383,
      "##님": 1384,
      "시대": 1385,
      "##위에": 1386,
      "##탁": 1387,
      "##견": 1388,
      "갈": 1389,
      "운동": 1390,
      "가능성이": 1391,
      "여행": 1392,
      "##페": 1393,
      "측": 1394,
      "##베": 1395,
      "내려": 1396,
      "지지": 1397,
      "처리": 1398,
      "시작했다": 1399,
      "실시": 1400,
      "접": 1401,
      "##20": 1402,
      "등으로": 1403,
      "설립": 1404,
      "##U": 1405,
      "##세기": 1406,
      "대한민국의": 1407,
      "##욱": 1408,
      "암": 1409,
      "##기로": 1410,
      "일정": 1411,
      "##착": 1412,
      "두고": 1413,
      "##쳤다": 1414,
      "U": 1415,
      "이제": 1416,
      "##됐": 1417,
      "작년": 1418,
      "##H": 1419,
      "것도": 1420,
      "미래": 1421,
      "##re": 1422,
      "감독이": 1423,
      "주변": 1424,
      "으로": 1425,
      "##촌": 1426,
      "상품": 1427,
      "병원": 1428,
      "시절": 1429,
      "이러한": 1430,
      "방안": 1431,
      "2009": 1432,
      "테": 1433,
      "경기가": 1434,
      "스타": 1435,
      "내년": 1436,
      "보내": 1437,
      "웃음": 1438,
      "달러": 1439,
      "삼성전자": 1440,
      "기자": 1441,
      "서로": 1442,
      "따": 1443,
      "홈": 1444,
      "##입니다": 1445,
      "만든": 1446,
      "##은행": 1447,
      "드": 1448,
      "공급": 1449,
      "##an": 1450,
      "측은": 1451,
      "전날": 1452,
      "대응": 1453,
      "중인": 1454,
      "##인데": 1455,
      "처": 1456,
      "KBS": 1457,
      "인터넷": 1458,
      "##옥": 1459,
      "나왔다": 1460,
      "인도": 1461,
      "확보": 1462,
      "어느": 1463,
      "환자": 1464,
      "보였다": 1465,
      "하지": 1466,
      "작업": 1467,
      "정상": 1468,
      "넘어": 1469,
      "보다": 1470,
      "없": 1471,
      "##장이": 1472,
      "책임": 1473,
      "##in": 1474,
      "핵심": 1475,
      "##년에는": 1476,
      "풀": 1477,
      "##필": 1478,
      "##d": 1479,
      "남성": 1480,
      "기능": 1481,
      "대통령의": 1482,
      "##벌": 1483,
      "##ic": 1484,
      "##N": 1485,
      "취": 1486,
      "끝": 1487,
      "앞두고": 1488,
      "##사가": 1489,
      "협상": 1490,
      "중심": 1491,
      "중요한": 1492,
      "발견": 1493,
      "##먼": 1494,
      "계획이다": 1495,
      "공간": 1496,
      "##쓰": 1497,
      "벌": 1498,
      "왜": 1499,
      "싶다": 1500,
      "남북": 1501,
      "놓": 1502,
      "##검": 1503,
      "SBS": 1504,
      "상승": 1505,
      "##염": 1506,
      "의혹": 1507,
      "##침": 1508,
      "##택": 1509,
      "변호사": 1510,
      "##하도록": 1511,
      "몇": 1512,
      "수원": 1513,
      "대전": 1514,
      "많다": 1515,
      "분야": 1516,
      "내부": 1517,
      "70": 1518,
      "기념": 1519,
      "##en": 1520,
      "건물": 1521,
      "방법": 1522,
      "김정은": 1523,
      "전반": 1524,
      "위원장": 1525,
      "모습이": 1526,
      "봉": 1527,
      "넥센": 1528,
      "체": 1529,
      "##h": 1530,
      "올랐다": 1531,
      "##주는": 1532,
      "존재": 1533,
      "##으로부터": 1534,
      "##흥": 1535,
      "팬들": 1536,
      "제도": 1537,
      "확정": 1538,
      "##한다고": 1539,
      "가격": 1540,
      "##으": 1541,
      "##하거나": 1542,
      "##한다는": 1543,
      "인물": 1544,
      "##기는": 1545,
      "보도했다": 1546,
      "뿐": 1547,
      "필": 1548,
      "사망": 1549,
      "않아": 1550,
      "앨범": 1551,
      "##60": 1552,
      "있게": 1553,
      "행": 1554,
      "##척": 1555,
      "주로": 1556,
      "행정": 1557,
      "##지고": 1558,
      "오른": 1559,
      "##TV": 1560,
      "2019": 1561,
      "##화를": 1562,
      "##수는": 1563,
      "비판": 1564,
      "다만": 1565,
      "이전": 1566,
      "잠": 1567,
      "동시에": 1568,
      "2007": 1569,
      "##자들": 1570,
      "전략": 1571,
      "거쳐": 1572,
      "##능": 1573,
      "나온다": 1574,
      "나이": 1575,
      "겸": 1576,
      "업체": 1577,
      "전달": 1578,
      "시행": 1579,
      "자기": 1580,
      "넘": 1581,
      "서울시": 1582,
      "치료": 1583,
      "감사": 1584,
      "울": 1585,
      "계약": 1586,
      "##I": 1587,
      "가지고": 1588,
      "이란": 1589,
      "사람은": 1590,
      "이렇게": 1591,
      "좋아": 1592,
      "중이다": 1593,
      "##전에서": 1594,
      "조성": 1595,
      "차례": 1596,
      "공연": 1597,
      "##걸": 1598,
      "전망": 1599,
      "경기에서": 1600,
      "제안": 1601,
      "직원": 1602,
      "부문": 1603,
      "외교": 1604,
      "대화": 1605,
      "##관리": 1606,
      "인간": 1607,
      "레이": 1608,
      "##수가": 1609,
      "은행": 1610,
      "도전": 1611,
      "매출": 1612,
      "따른": 1613,
      "얘기": 1614,
      "##감을": 1615,
      "시도": 1616,
      "담당": 1617,
      "않았": 1618,
      "##턴": 1619,
      "대선": 1620,
      "규제": 1621,
      "방식": 1622,
      "##문화": 1623,
      "혐의": 1624,
      "있": 1625,
      "때문": 1626,
      "##8": 1627,
      "대상으로": 1628,
      "##낸": 1629,
      "관련해": 1630,
      "사장": 1631,
      "이들은": 1632,
      "처음으로": 1633,
      "보면": 1634,
      "##혀": 1635,
      "##f": 1636,
      "건강": 1637,
      "##객": 1638,
      "숨": 1639,
      "##월부터": 1640,
      "위기": 1641,
      "##자의": 1642,
      "##협": 1643,
      "격": 1644,
      "잔": 1645,
      "몰": 1646,
      "팬": 1647,
      "##률": 1648,
      "부담": 1649,
      "신청": 1650,
      "##했으": 1651,
      "기관": 1652,
      "##월에": 1653,
      "이야기를": 1654,
      "하락": 1655,
      "##학교": 1656,
      "못한": 1657,
      "우려": 1658,
      "작은": 1659,
      "반응": 1660,
      "##경제": 1661,
      "##지역": 1662,
      "##공사": 1663,
      "자료": 1664,
      "##클": 1665,
      "목표": 1666,
      "빈": 1667,
      "브": 1668,
      "대형": 1669,
      "##힌": 1670,
      "되어": 1671,
      "실제": 1672,
      "덧붙였다": 1673,
      "##V": 1674,
      "시각": 1675,
      "강조했다": 1676,
      "좀": 1677,
      "준": 1678,
      "나타났다": 1679,
      "이름을": 1680,
      "##했을": 1681,
      "보호": 1682,
      "##시켰다": 1683,
      "중단": 1684,
      "낙": 1685,
      "위치": 1686,
      "##죠": 1687,
      "##틀": 1688,
      "##폐": 1689,
      "나가": 1690,
      "주식": 1691,
      "##수를": 1692,
      "##좌": 1693,
      "의사": 1694,
      "야구": 1695,
      "사실을": 1696,
      "부동산": 1697,
      "보도": 1698,
      "##으로서": 1699,
      "대해서는": 1700,
      "상황에서": 1701,
      "있는데": 1702,
      "자연": 1703,
      "##조사": 1704,
      "캐릭터": 1705,
      "##40": 1706,
      "##하지만": 1707,
      "없어": 1708,
      "효과": 1709,
      "##련": 1710,
      "온라인": 1711,
      "예산": 1712,
      "##라운드": 1713,
      "##회의": 1714,
      "독립": 1715,
      "퇴": 1716,
      "##째": 1717,
      "조정": 1718,
      "##원은": 1719,
      "마무리": 1720,
      "##시설": 1721,
      "돌아": 1722,
      "존": 1723,
      "##지원": 1724,
      "그동안": 1725,
      "아내": 1726,
      "##궁": 1727,
      "부상": 1728,
      "정말": 1729,
      "검토": 1730,
      "##70": 1731,
      "수입": 1732,
      "##le": 1733,
      "관한": 1734,
      "친구": 1735,
      "이해": 1736,
      "즉": 1737,
      "경험": 1738,
      "낮": 1739,
      "수비": 1740,
      "##존": 1741,
      "200": 1742,
      "##졌": 1743,
      "혁신": 1744,
      "퍼": 1745,
      "##나라": 1746,
      "정도로": 1747,
      "있기": 1748,
      "찍": 1749,
      "곳": 1750,
      "##측": 1751,
      "것이라고": 1752,
      "##스터": 1753,
      "정부의": 1754,
      "얼마": 1755,
      "옥": 1756,
      "득점": 1757,
      "성적": 1758,
      "제대로": 1759,
      "평화": 1760,
      "##개를": 1761,
      "아래": 1762,
      "##치를": 1763,
      "관객": 1764,
      "##랜드": 1765,
      "##〈": 1766,
      "이탈리아": 1767,
      "##람": 1768,
      "전북": 1769,
      "지나": 1770,
      "차이": 1771,
      "능력": 1772,
      "##황": 1773,
      "시리즈": 1774,
      "단체": 1775,
      "얼굴": 1776,
      "##누": 1777,
      "△": 1778,
      "구속": 1779,
      "##득": 1780,
      "35": 1781,
      "##타점": 1782,
      "##리아": 1783,
      "80": 1784,
      "##관계": 1785,
      "신고": 1786,
      "##시즌": 1787,
      "중심으로": 1788,
      "새누리당": 1789,
      "디자인": 1790,
      "##회말": 1791,
      "검사": 1792,
      "힘": 1793,
      "가능": 1794,
      "염": 1795,
      "이들": 1796,
      "요청": 1797,
      "여부": 1798,
      "##하라": 1799,
      "##원이": 1800,
      "통과": 1801,
      "감소": 1802,
      "질": 1803,
      "않을": 1804,
      "청년": 1805,
      "스포츠": 1806,
      "응": 1807,
      "위반": 1808,
      "##<": 1809,
      "##새": 1810,
      "군사": 1811,
      "##킹": 1812,
      "제주": 1813,
      "만들": 1814,
      "##슈": 1815,
      "휴": 1816,
      "그가": 1817,
      "##이지만": 1818,
      "논란": 1819,
      "에서는": 1820,
      "##연승": 1821,
      "박근혜": 1822,
      "탄": 1823,
      "남편": 1824,
      "1000": 1825,
      "제시": 1826,
      "의료": 1827,
      "##되며": 1828,
      "##웅": 1829,
      "사람들": 1830,
      "울산": 1831,
      "임명": 1832,
      "쇼": 1833,
      "아무": 1834,
      "일이": 1835,
      "사상": 1836,
      "불법": 1837,
      "노동": 1838,
      "육": 1839,
      "어머니": 1840,
      "활용": 1841,
      "역대": 1842,
      "통합": 1843,
      "올리": 1844,
      "그린": 1845,
      "주장했다": 1846,
      "##회사": 1847,
      "엄": 1848,
      "승부": 1849,
      "허용": 1850,
      "연장": 1851,
      "##스의": 1852,
      "베트남": 1853,
      "등장": 1854,
      "##싱": 1855,
      "압": 1856,
      "##혼": 1857,
      "##문을": 1858,
      "인근": 1859,
      "주도": 1860,
      "##실점": 1861,
      "##ch": 1862,
      "##맨": 1863,
      "이름": 1864,
      "##마다": 1865,
      "발매": 1866,
      "석": 1867,
      "미사일": 1868,
      "위험": 1869,
      "##둥": 1870,
      "KT": 1871,
      "##차전": 1872,
      "##니까": 1873,
      "학생": 1874,
      "지정": 1875,
      "기본": 1876,
      "지급": 1877,
      "망": 1878,
      "필요한": 1879,
      "자신이": 1880,
      "규정": 1881,
      "##압": 1882,
      "##십": 1883,
      "연출": 1884,
      "##9": 1885,
      "혼": 1886,
      "삶": 1887,
      "언급": 1888,
      "##줄": 1889,
      "회의": 1890,
      "##교육": 1891,
      "크": 1892,
      "알고": 1893,
      "뉴스": 1894,
      "제재": 1895,
      "오르": 1896,
      "포인트": 1897,
      "##확": 1898,
      "나는": 1899,
      "가능성": 1900,
      "거의": 1901,
      "늘": 1902,
      "##있다": 1903,
      "##병원": 1904,
      "풍": 1905,
      "목소리": 1906,
      "작가": 1907,
      "에너지": 1908,
      "멤버": 1909,
      "수상": 1910,
      "기억": 1911,
      "장면": 1912,
      "좌": 1913,
      "##라도": 1914,
      "##갑": 1915,
      "배치": 1916,
      "분양": 1917,
      "##었고": 1918,
      "뉴욕": 1919,
      "거리": 1920,
      "검": 1921,
      "그런데": 1922,
      "달라": 1923,
      "##진다": 1924,
      "원내대표": 1925,
      "##명으로": 1926,
      "필요하다": 1927,
      "완": 1928,
      "뉴": 1929,
      "높이": 1930,
      "들어가": 1931,
      "2006": 1932,
      "##조선": 1933,
      "##널": 1934,
      "##사는": 1935,
      "그것": 1936,
      "현실": 1937,
      "구단": 1938,
      "##ing": 1939,
      "스스로": 1940,
      "비해": 1941,
      "##시켜": 1942,
      "일본의": 1943,
      "민주당": 1944,
      "제출": 1945,
      "그대로": 1946,
      "##W": 1947,
      "정상회담": 1948,
      "비용": 1949,
      "##칠": 1950,
      "##니아": 1951,
      "혹": 1952,
      "##춘": 1953,
      "##있": 1954,
      "꿈": 1955,
      "##at": 1956,
      "##개발": 1957,
      "속도": 1958,
      "인수": 1959,
      "음": 1960,
      "지적": 1961,
      "복귀": 1962,
      "행동": 1963,
      "듯": 1964,
      "500": 1965,
      "##았": 1966,
      "만들었다": 1967,
      "##트리": 1968,
      "##치는": 1969,
      "소개": 1970,
      "##v": 1971,
      "##갔다": 1972,
      "##딩": 1973,
      "법원": 1974,
      "하였다": 1975,
      "칼": 1976,
      "##하였으며": 1977,
      "세상": 1978,
      "무역": 1979,
      "##었": 1980,
      "##w": 1981,
      "부회장": 1982,
      "32": 1983,
      "대표팀": 1984,
      "말을": 1985,
      "수요": 1986,
      "순간": 1987,
      "전투": 1988,
      "##is": 1989,
      "프": 1990,
      "것에": 1991,
      "##했는데": 1992,
      "끝에": 1993,
      "변경": 1994,
      "##되었으며": 1995,
      "이유로": 1996,
      "주택": 1997,
      "##치고": 1998,
      "##금을": 1999,
      "##이었던": 2000,
      "##원을": 2001,
      "각종": 2002,
      "##컵": 2003,
      "##리스": 2004,
      "##대학교": 2005,
      "##듯": 2006,
      "##빙": 2007,
      "##차례": 2008,
      "그러": 2009,
      "고용": 2010,
      "##별로": 2011,
      "##연패": 2012,
      "##폰": 2013,
      "초반": 2014,
      "금리": 2015,
      "##쇼": 2016,
      "##렸": 2017,
      "나섰다": 2018,
      "##되면": 2019,
      "일자리": 2020,
      "##렉": 2021,
      "발표했다": 2022,
      "맛": 2023,
      "##엘": 2024,
      "kt": 2025,
      "##정보": 2026,
      "##선수": 2027,
      "탈": 2028,
      "그리스": 2029,
      "캐": 2030,
      "##정책": 2031,
      "바람": 2032,
      "나온": 2033,
      "왔다": 2034,
      "비롯해": 2035,
      "##대회": 2036,
      "참석": 2037,
      "교체": 2038,
      "##몬": 2039,
      "너": 2040,
      "범죄": 2041,
      "전화": 2042,
      "##투자": 2043,
      "##금융": 2044,
      "소비자": 2045,
      "우선": 2046,
      "관심을": 2047,
      "겪": 2048,
      "한다는": 2049,
      "중국의": 2050,
      "##하는데": 2051,
      "프로젝트": 2052,
      "##렬": 2053,
      "안정": 2054,
      "##버스": 2055,
      "##둔": 2056,
      "전환": 2057,
      "##스가": 2058,
      "받을": 2059,
      "##쟁": 2060,
      "##트로": 2061,
      "선수들": 2062,
      "자금": 2063,
      "소식": 2064,
      "부족": 2065,
      "##us": 2066,
      "활동을": 2067,
      "고민": 2068,
      "선수들이": 2069,
      "멤버들": 2070,
      "정권": 2071,
      "회장은": 2072,
      "##들도": 2073,
      "대사": 2074,
      "재판": 2075,
      "최고의": 2076,
      "부르": 2077,
      "도로": 2078,
      "##조원": 2079,
      "트": 2080,
      "##파크": 2081,
      "##납": 2082,
      "올렸다": 2083,
      "대출": 2084,
      "제한": 2085,
      "깨": 2086,
      "엄마": 2087,
      "여전히": 2088,
      "스마트폰": 2089,
      "완성": 2090,
      "##기술": 2091,
      "##회초": 2092,
      "피해자": 2093,
      "꽃": 2094,
      "##위로": 2095,
      "##공원": 2096,
      "구매": 2097,
      "실패": 2098,
      "호텔": 2099,
      "대중": 2100,
      "성과": 2101,
      "장기": 2102,
      "통신": 2103,
      "##거래": 2104,
      "돼": 2105,
      "해야": 2106,
      "받는": 2107,
      "수행": 2108,
      "##되었고": 2109,
      "숙": 2110,
      "투입": 2111,
      "##력이": 2112,
      "이루": 2113,
      "쓴": 2114,
      "직후": 2115,
      "##it": 2116,
      "##니다": 2117,
      "##함을": 2118,
      "되고": 2119,
      "시설": 2120,
      "광고": 2121,
      "소재": 2122,
      "높": 2123,
      "한반도": 2124,
      "사이에": 2125,
      "조건": 2126,
      "##학과": 2127,
      "##정부": 2128,
      "##였": 2129,
      "##본부": 2130,
      "민간": 2131,
      "힘을": 2132,
      "이달": 2133,
      "방침": 2134,
      "가져": 2135,
      "##때": 2136,
      "기사": 2137,
      "##위원장": 2138,
      "머리": 2139,
      "33": 2140,
      "판결": 2141,
      "##드는": 2142,
      "발사": 2143,
      "형사": 2144,
      "대체": 2145,
      "##90": 2146,
      "실제로": 2147,
      "북한이": 2148,
      "가치": 2149,
      "근무": 2150,
      "회복": 2151,
      "45": 2152,
      "불러": 2153,
      "##군의": 2154,
      "이같": 2155,
      "발언": 2156,
      "당국": 2157,
      "빛": 2158,
      "2005": 2159,
      "초기": 2160,
      "술": 2161,
      "##홈런": 2162,
      "월드컵": 2163,
      "영업": 2164,
      "안타": 2165,
      "차지": 2166,
      "##참": 2167,
      "가정": 2168,
      "최초로": 2169,
      "##보고": 2170,
      "행위": 2171,
      "##바이": 2172,
      "##있는": 2173,
      "##19": 2174,
      "형태": 2175,
      "정신": 2176,
      "소송": 2177,
      "##셔": 2178,
      "그래서": 2179,
      "##리를": 2180,
      "종합": 2181,
      "s": 2182,
      "녹": 2183,
      "음식": 2184,
      "##운동": 2185,
      "스페인": 2186,
      "##방송": 2187,
      "추천": 2188,
      "##탕": 2189,
      "##룡": 2190,
      "##허": 2191,
      "##시티": 2192,
      "발표한": 2193,
      "상당": 2194,
      "행복": 2195,
      "졸업": 2196,
      "하다": 2197,
      "생각한다": 2198,
      "##만명": 2199,
      "카드": 2200,
      "류": 2201,
      "##호는": 2202,
      "아니": 2203,
      "##스크": 2204,
      "단계": 2205,
      "##뜨": 2206,
      "금지": 2207,
      "##었지만": 2208,
      "##사회": 2209,
      "##겠다는": 2210,
      "거부": 2211,
      "소리": 2212,
      "효": 2213,
      "뛰": 2214,
      "##리에": 2215,
      "김성": 2216,
      "말한다": 2217,
      "휘": 2218,
      "주인공": 2219,
      "빌": 2220,
      "만난": 2221,
      "매력": 2222,
      "##원으로": 2223,
      "야당": 2224,
      "감독의": 2225,
      "##쾌": 2226,
      "##톤": 2227,
      "구축": 2228,
      "##개국": 2229,
      "폐": 2230,
      "전자": 2231,
      "것이라는": 2232,
      "보수": 2233,
      "사전": 2234,
      "가능하다": 2235,
      "실적": 2236,
      "전시": 2237,
      "##육": 2238,
      "특징": 2239,
      "있습니다": 2240,
      "걱정": 2241,
      "##릭": 2242,
      "##하겠다는": 2243,
      "##접": 2244,
      "돌파": 2245,
      "내놓": 2246,
      "위협": 2247,
      "##하려": 2248,
      "전력": 2249,
      "전기": 2250,
      "##자리": 2251,
      "그림": 2252,
      "##80": 2253,
      "##시키": 2254,
      "부인": 2255,
      "000": 2256,
      "시기": 2257,
      "사례": 2258,
      "넘는": 2259,
      "살아": 2260,
      "향후": 2261,
      "탐": 2262,
      "##위원": 2263,
      "이와": 2264,
      "특정": 2265,
      "선언": 2266,
      "기준으로": 2267,
      "##리가": 2268,
      "개혁": 2269,
      "못하고": 2270,
      "2004": 2271,
      "##생활": 2272,
      "열리는": 2273,
      "##연구소": 2274,
      "##닝": 2275,
      "지구": 2276,
      "##대학": 2277,
      "여름": 2278,
      "##베르": 2279,
      "경남": 2280,
      "충": 2281,
      "##없이": 2282,
      "##이기도": 2283,
      "시간이": 2284,
      "##명은": 2285,
      "사실상": 2286,
      "공유": 2287,
      "교수는": 2288,
      "##물을": 2289,
      "있었던": 2290,
      "##우스": 2291,
      "후보자": 2292,
      "공장": 2293,
      "수석": 2294,
      "떠나": 2295,
      "##드리": 2296,
      "수익": 2297,
      "소설": 2298,
      "교통": 2299,
      "어려운": 2300,
      "##간다": 2301,
      "그러면서": 2302,
      "34": 2303,
      "##응": 2304,
      "등록": 2305,
      "웃": 2306,
      "36": 2307,
      "붙": 2308,
      "##시키는": 2309,
      "좋다": 2310,
      "시민": 2311,
      "##달러": 2312,
      "타이": 2313,
      "티": 2314,
      "##단체": 2315,
      "##선을": 2316,
      "##학생": 2317,
      "요리": 2318,
      "##돈": 2319,
      "지시": 2320,
      "관심이": 2321,
      "도쿄": 2322,
      "##우는": 2323,
      "##어요": 2324,
      "##닉": 2325,
      "정당": 2326,
      "##식을": 2327,
      "##500": 2328,
      "업계": 2329,
      "##칙": 2330,
      "##㎡": 2331,
      "약속": 2332,
      "형성": 2333,
      "부진": 2334,
      "##장으로": 2335,
      "원인": 2336,
      "##기구": 2337,
      "출발": 2338,
      "##스와": 2339,
      "사람들이": 2340,
      "전문가": 2341,
      "##업계": 2342,
      "##큐": 2343,
      "케": 2344,
      "채용": 2345,
      "보통": 2346,
      "눈길": 2347,
      "##건설": 2348,
      "포함한": 2349,
      "##몽": 2350,
      "SNS": 2351,
      "##제를": 2352,
      "부부": 2353,
      "반영": 2354,
      "##대가": 2355,
      "##귀": 2356,
      "##념": 2357,
      "##쳤": 2358,
      "투표": 2359,
      "##답": 2360,
      "절차": 2361,
      "강남": 2362,
      "인식": 2363,
      "시간을": 2364,
      "보는": 2365,
      "신규": 2366,
      "선물": 2367,
      "##가지": 2368,
      "나오": 2369,
      "관광": 2370,
      "어렵다": 2371,
      "주목": 2372,
      "##억원을": 2373,
      "##ol": 2374,
      "그렇게": 2375,
      "희망": 2376,
      "90": 2377,
      "##12": 2378,
      "작": 2379,
      "대북": 2380,
      "홍콩": 2381,
      "##들에": 2382,
      "단지": 2383,
      "##합니다": 2384,
      "둘": 2385,
      "강조": 2386,
      "##성과": 2387,
      "##린다": 2388,
      "##사의": 2389,
      "##틴": 2390,
      "##비를": 2391,
      "##험": 2392,
      "장소": 2393,
      "그들": 2394,
      "열고": 2395,
      "##엽": 2396,
      "맞아": 2397,
      "쉽게": 2398,
      "모바일": 2399,
      "설계": 2400,
      "공개했다": 2401,
      "전혀": 2402,
      "##잉": 2403,
      "콜": 2404,
      "곧": 2405,
      "알아": 2406,
      "시험": 2407,
      "질문에": 2408,
      "우리나라": 2409,
      "지배": 2410,
      "##자들이": 2411,
      "감정": 2412,
      "##es": 2413,
      "승점": 2414,
      "##쿼터": 2415,
      "예술": 2416,
      "300": 2417,
      "학생들": 2418,
      "이재": 2419,
      "한국의": 2420,
      "강한": 2421,
      "샤": 2422,
      "##가구": 2423,
      "유엔": 2424,
      "노선": 2425,
      "적이": 2426,
      "##혈": 2427,
      "범": 2428,
      "##웨이": 2429,
      "이승": 2430,
      "흥행": 2431,
      "대변인": 2432,
      "##코리아": 2433,
      "슬": 2434,
      "기획": 2435,
      "사과": 2436,
      "파악": 2437,
      "마음을": 2438,
      "FC": 2439,
      "특수": 2440,
      "오히려": 2441,
      "더불어민주당": 2442,
      "##얼": 2443,
      "유명": 2444,
      "##되": 2445,
      "##진은": 2446,
      "오래": 2447,
      "진행된": 2448,
      "비롯한": 2449,
      "제국": 2450,
      "로마": 2451,
      "슈": 2452,
      "사회적": 2453,
      "통일": 2454,
      "혐의를": 2455,
      "비핵화": 2456,
      "##킨": 2457,
      "공사": 2458,
      "##엔터테인먼트": 2459,
      "여기에": 2460,
      "분류": 2461,
      "보이": 2462,
      "##x": 2463,
      "축": 2464,
      "재정": 2465,
      "니": 2466,
      "도착": 2467,
      "##통신": 2468,
      "홍보": 2469,
      "##롱": 2470,
      "##센": 2471,
      "옆": 2472,
      "쿠": 2473,
      "데이터": 2474,
      "하면": 2475,
      "##징": 2476,
      "주민": 2477,
      "떠": 2478,
      "골프": 2479,
      "이뤄": 2480,
      "소유": 2481,
      "덕": 2482,
      "지속": 2483,
      "등판": 2484,
      "이미지": 2485,
      "운행": 2486,
      "지분": 2487,
      "만드는": 2488,
      "증거": 2489,
      "우리는": 2490,
      "##젠": 2491,
      "맥": 2492,
      "클": 2493,
      "##해진": 2494,
      "##했": 2495,
      "사실이": 2496,
      "솔로": 2497,
      "과학": 2498,
      "##학자": 2499,
      "완벽": 2500,
      "프리": 2501,
      "##전에": 2502,
      "나와": 2503,
      "현대차": 2504,
      "##스러운": 2505,
      "영어": 2506,
      "본인": 2507,
      "지상": 2508,
      "있어서": 2509,
      "징역": 2510,
      "선두": 2511,
      "##겐": 2512,
      "##났다": 2513,
      "떨어진": 2514,
      "상황이": 2515,
      "블랙": 2516,
      "모양": 2517,
      "달성": 2518,
      "##득점": 2519,
      "##위는": 2520,
      "##뿐": 2521,
      "##서는": 2522,
      "알려져": 2523,
      "충격": 2524,
      "소득": 2525,
      "만족": 2526,
      "답": 2527,
      "안보": 2528,
      "##혔다": 2529,
      "##욕": 2530,
      "법률": 2531,
      "이벤트": 2532,
      "가능한": 2533,
      "일대": 2534,
      "##ro": 2535,
      "##기간": 2536,
      "땅": 2537,
      "이곳": 2538,
      "따라서": 2539,
      "당선": 2540,
      "철": 2541,
      "##세가": 2542,
      "젊은": 2543,
      "##자와": 2544,
      "끊": 2545,
      "이때": 2546,
      "논란이": 2547,
      "##활동": 2548,
      "방향": 2549,
      "##몰": 2550,
      "##컬": 2551,
      "##회를": 2552,
      "해도": 2553,
      "38": 2554,
      "크다": 2555,
      "##ra": 2556,
      "##25": 2557,
      "갈등": 2558,
      "종료": 2559,
      "지금까지": 2560,
      "##인지": 2561,
      "2002": 2562,
      "통화": 2563,
      "우주": 2564,
      "##되기": 2565,
      "##튼": 2566,
      "##끈": 2567,
      "지키": 2568,
      "타격": 2569,
      "걸쳐": 2570,
      "하이": 2571,
      "##연구원": 2572,
      "##ri": 2573,
      "##려고": 2574,
      "때는": 2575,
      "것과": 2576,
      "정의": 2577,
      "##et": 2578,
      "나머지": 2579,
      "우리가": 2580,
      "매장": 2581,
      "일을": 2582,
      "가입": 2583,
      "총선": 2584,
      "##장에서": 2585,
      "취임": 2586,
      "길이": 2587,
      "##부는": 2588,
      "거뒀다": 2589,
      "안에": 2590,
      "##스키": 2591,
      "홈페이지": 2592,
      "사태": 2593,
      "##탑": 2594,
      "전문가들": 2595,
      "명의": 2596,
      "매년": 2597,
      "속에서": 2598,
      "##멘": 2599,
      "유통": 2600,
      "전통": 2601,
      "##풀": 2602,
      "단독": 2603,
      "받": 2604,
      "나타나": 2605,
      "인생": 2606,
      "##라이": 2607,
      "##ed": 2608,
      "버스": 2609,
      "왼쪽": 2610,
      "보여": 2611,
      "수술": 2612,
      "이번에": 2613,
      "중소기업": 2614,
      "지켜": 2615,
      "누구": 2616,
      "신경": 2617,
      "##콘": 2618,
      "##났": 2619,
      "우승을": 2620,
      "##5000": 2621,
      "차지했다": 2622,
      "##800": 2623,
      "취업": 2624,
      "위해서": 2625,
      "패배": 2626,
      "##지도": 2627,
      "##루타": 2628,
      "놓고": 2629,
      "##점으로": 2630,
      "원래": 2631,
      "제가": 2632,
      "슈퍼": 2633,
      "견": 2634,
      "대책": 2635,
      "밖에": 2636,
      "케이": 2637,
      "해석": 2638,
      "지휘": 2639,
      "##사로": 2640,
      "조금": 2641,
      "37": 2642,
      "캐나다": 2643,
      "한번": 2644,
      "##승을": 2645,
      "외부": 2646,
      "##홀": 2647,
      "##겠": 2648,
      "단순": 2649,
      "기반": 2650,
      "##11": 2651,
      "싱글": 2652,
      "##장에": 2653,
      "김종": 2654,
      "끼": 2655,
      "##리스트": 2656,
      "전년": 2657,
      "받았": 2658,
      "연합": 2659,
      "옷": 2660,
      "국립": 2661,
      "싸": 2662,
      "짓": 2663,
      "합류": 2664,
      "현상": 2665,
      "##샤": 2666,
      "높다": 2667,
      "청구": 2668,
      "공공": 2669,
      "##15": 2670,
      "지하": 2671,
      "꼭": 2672,
      "기소": 2673,
      "##th": 2674,
      "##임을": 2675,
      "바다": 2676,
      "보고서": 2677,
      "페이스북": 2678,
      "##트를": 2679,
      "빼": 2680,
      "##자들은": 2681,
      "체제": 2682,
      "##해왔다": 2683,
      "##됐고": 2684,
      "워": 2685,
      "비율": 2686,
      "호주": 2687,
      "##하겠다고": 2688,
      "아이들": 2689,
      "##주년": 2690,
      "##카드": 2691,
      "##여명": 2692,
      "벤": 2693,
      "##원의": 2694,
      "잡아": 2695,
      "밝히": 2696,
      "##잡": 2697,
      "KB": 2698,
      "통한": 2699,
      "비슷한": 2700,
      "##大": 2701,
      "##시에": 2702,
      "겨울": 2703,
      "p": 2704,
      "##하려는": 2705,
      "##농": 2706,
      "압박": 2707,
      "##법을": 2708,
      "컴퓨터": 2709,
      "##주택": 2710,
      "수밖에": 2711,
      "##타임": 2712,
      "지적했다": 2713,
      "침": 2714,
      "임금": 2715,
      "동물": 2716,
      "후에": 2717,
      "##성은": 2718,
      "정보를": 2719,
      "김정": 2720,
      "인터뷰에서": 2721,
      "체포": 2722,
      "##었던": 2723,
      "인터뷰": 2724,
      "협의": 2725,
      "한다고": 2726,
      "##재단": 2727,
      "##텔": 2728,
      "유리": 2729,
      "##심을": 2730,
      "타고": 2731,
      "전해졌다": 2732,
      "공개된": 2733,
      "완전히": 2734,
      "벗": 2735,
      "##21": 2736,
      "##자인": 2737,
      "##소를": 2738,
      "##빌": 2739,
      "밝혀": 2740,
      "최소": 2741,
      "##구를": 2742,
      "##갔": 2743,
      "무기": 2744,
      "바탕으로": 2745,
      "##지수": 2746,
      "공무원": 2747,
      "##월까지": 2748,
      "메시지": 2749,
      "플레이": 2750,
      "##벽": 2751,
      "##z": 2752,
      "운": 2753,
      "제조": 2754,
      "##축구": 2755,
      "의지": 2756,
      "지명": 2757,
      "전망이다": 2758,
      "언어": 2759,
      "대통령과": 2760,
      "클럽": 2761,
      "느낌": 2762,
      "##사와": 2763,
      "꾸준": 2764,
      "김영": 2765,
      "##트레": 2766,
      "##화가": 2767,
      "자랑": 2768,
      "근거": 2769,
      "비밀": 2770,
      "##안을": 2771,
      "내리": 2772,
      "##팔": 2773,
      "빠른": 2774,
      "정치적": 2775,
      "새로": 2776,
      "부모": 2777,
      "공정": 2778,
      "예고": 2779,
      "눈물": 2780,
      "##현은": 2781,
      "##죄": 2782,
      "운전": 2783,
      "보여주": 2784,
      "나선": 2785,
      "어린": 2786,
      "폭발": 2787,
      "머": 2788,
      "##군은": 2789,
      "디지털": 2790,
      "발생한": 2791,
      "##상의": 2792,
      "##먹": 2793,
      "알리": 2794,
      "전에": 2795,
      "##연맹": 2796,
      "2003": 2797,
      "##값": 2798,
      "##평가": 2799,
      "##세트": 2800,
      "한미": 2801,
      "소화": 2802,
      "창업": 2803,
      "회담": 2804,
      "목적": 2805,
      "대학교": 2806,
      "연방": 2807,
      "##99": 2808,
      "접근": 2809,
      "바꾸": 2810,
      "##퇴": 2811,
      "투어": 2812,
      "경찰에": 2813,
      "확장": 2814,
      "철도": 2815,
      "##멸": 2816,
      "낮은": 2817,
      "##낼": 2818,
      "활": 2819,
      "종목": 2820,
      "임시": 2821,
      "전용": 2822,
      "##대표": 2823,
      "테러": 2824,
      "신뢰": 2825,
      "팀의": 2826,
      "##지면서": 2827,
      "평양": 2828,
      "파리": 2829,
      "##벤": 2830,
      "##되자": 2831,
      "##칸": 2832,
      "김태": 2833,
      "대규모": 2834,
      "언제": 2835,
      "양국": 2836,
      "##더라": 2837,
      "##닐": 2838,
      "보기": 2839,
      "아니냐": 2840,
      "빅": 2841,
      "향해": 2842,
      "앞에서": 2843,
      "##빠": 2844,
      "##루수": 2845,
      "엔진": 2846,
      "어디": 2847,
      "쏟아": 2848,
      "대기업": 2849,
      "김민": 2850,
      "##겼다": 2851,
      "도널드": 2852,
      "맞는": 2853,
      "응원": 2854,
      "스타일": 2855,
      "of": 2856,
      "전남": 2857,
      "##쁘": 2858,
      "노조": 2859,
      "패션": 2860,
      "##했기": 2861,
      "그래": 2862,
      "김씨": 2863,
      "##킬": 2864,
      "음반": 2865,
      "구간": 2866,
      "##받": 2867,
      "##읍": 2868,
      "카메라": 2869,
      "불안": 2870,
      "##라면": 2871,
      "크기": 2872,
      "자격": 2873,
      "##엄": 2874,
      "증시": 2875,
      "##나무": 2876,
      "##계약": 2877,
      "엔": 2878,
      "작성": 2879,
      "자주": 2880,
      "낸": 2881,
      "##프로": 2882,
      "한국은": 2883,
      "취소": 2884,
      "국정": 2885,
      "##털": 2886,
      "##럭": 2887,
      "##앤": 2888,
      "성공했다": 2889,
      "##짐": 2890,
      "애플": 2891,
      "거두": 2892,
      "중간": 2893,
      "푸": 2894,
      "##늘": 2895,
      "##랜": 2896,
      "긴": 2897,
      "##DB": 2898,
      "##경찰서": 2899,
      "맞춰": 2900,
      "##st": 2901,
      "하며": 2902,
      "##구역": 2903,
      "실험": 2904,
      "##음을": 2905,
      "거주": 2906,
      "순위": 2907,
      "컨": 2908,
      "연습": 2909,
      "넓": 2910,
      "##특": 2911,
      "자녀": 2912,
      "최초의": 2913,
      "앤": 2914,
      "자세": 2915,
      "##24": 2916,
      "##ur": 2917,
      "##컴": 2918,
      "많아": 2919,
      "정리": 2920,
      "타자": 2921,
      "##왔": 2922,
      "살인": 2923,
      "회원": 2924,
      "##억달러": 2925,
      "IT": 2926,
      "##16": 2927,
      "폐지": 2928,
      "혼자": 2929,
      "외국": 2930,
      "절대": 2931,
      "민족": 2932,
      "##이드": 2933,
      "맨": 2934,
      "속에": 2935,
      "포기": 2936,
      "세력": 2937,
      "##18": 2938,
      "##am": 2939,
      "##영은": 2940,
      "제외": 2941,
      "##폴": 2942,
      "일어나": 2943,
      "시점": 2944,
      "타선": 2945,
      "여야": 2946,
      "개막": 2947,
      "자유한국당": 2948,
      "##융": 2949,
      "##원에": 2950,
      "##진이": 2951,
      "개정": 2952,
      "끝나": 2953,
      "콘텐츠": 2954,
      "어린이": 2955,
      "밝힌": 2956,
      "기타": 2957,
      "플": 2958,
      "##el": 2959,
      "##케이": 2960,
      "역전": 2961,
      "42": 2962,
      "사드": 2963,
      "진짜": 2964,
      "셈": 2965,
      "##핑": 2966,
      "관측": 2967,
      "##만큼": 2968,
      "냉": 2969,
      "때까지": 2970,
      "강력한": 2971,
      "집단": 2972,
      "꾸": 2973,
      "39": 2974,
      "##보험": 2975,
      "면": 2976,
      "불구하고": 2977,
      "시작한": 2978,
      "헌법": 2979,
      "비난": 2980,
      "##어야": 2981,
      "방식으로": 2982,
      "반발": 2983,
      "부정": 2984,
      "법안": 2985,
      "##레스": 2986,
      "봄": 2987,
      "경우가": 2988,
      "##호선": 2989,
      "원칙": 2990,
      "있지": 2991,
      "마을": 2992,
      "불과": 2993,
      "그리": 2994,
      "심리": 2995,
      "##데이": 2996,
      "사람의": 2997,
      "##㎞": 2998,
      "##했습니다": 2999,
      "해서": 3000,
      "대법원": 3001,
      "##로운": 3002,
      "갖": 3003,
      "55": 3004,
      "늘었다": 3005,
      "결승": 3006,
      "대결": 3007,
      "강제": 3008,
      "##대의": 3009,
      "라이": 3010,
      "##17": 3011,
      "흐름": 3012,
      "##실장": 3013,
      "##럼": 3014,
      "브라질": 3015,
      "알려진": 3016,
      "##느냐": 3017,
      "##점이": 3018,
      "항공": 3019,
      "말해": 3020,
      "높아": 3021,
      "보장": 3022,
      "이유는": 3023,
      "##헤": 3024,
      "들었다": 3025,
      "매각": 3026,
      "포함해": 3027,
      "처벌": 3028,
      "국민의당": 3029,
      "##표를": 3030,
      "동원": 3031,
      "예능": 3032,
      "소감": 3033,
      "신인": 3034,
      "이적": 3035,
      "빚": 3036,
      "완전": 3037,
      "동부": 3038,
      "의무": 3039,
      "체험": 3040,
      "재산": 3041,
      "기부": 3042,
      "연간": 3043,
      "##역을": 3044,
      "아침": 3045,
      "##내는": 3046,
      "팀이": 3047,
      "##호가": 3048,
      "##이던": 3049,
      "이용해": 3050,
      "이끄는": 3051,
      "52": 3052,
      "##짝": 3053,
      "1990": 3054,
      "오픈": 3055,
      "없다는": 3056,
      "X": 3057,
      "48": 3058,
      "기여": 3059,
      "답했다": 3060,
      "##05": 3061,
      "##맥": 3062,
      "해군": 3063,
      "##700": 3064,
      "스마트": 3065,
      "끌어": 3066,
      "앞에": 3067,
      "##전자": 3068,
      "나오는": 3069,
      "##푸": 3070,
      "어려움": 3071,
      "##혹": 3072,
      "00": 3073,
      "보험": 3074,
      "##솔": 3075,
      "##냈": 3076,
      "놀": 3077,
      "##으면서": 3078,
      "매체": 3079,
      "초대": 3080,
      "찬": 3081,
      "소비": 3082,
      "m": 3083,
      "작전": 3084,
      "빠져": 3085,
      "체결": 3086,
      "AI": 3087,
      "은퇴": 3088,
      "선임": 3089,
      "주는": 3090,
      "비상": 3091,
      "##시아": 3092,
      "##법인": 3093,
      "많았다": 3094,
      "연주": 3095,
      "##비아": 3096,
      "##줬다": 3097,
      "비교": 3098,
      "할인": 3099,
      "떨어지": 3100,
      "##델": 3101,
      "관련된": 3102,
      "##받은": 3103,
      "세종": 3104,
      "최다": 3105,
      "##컨": 3106,
      "궁": 3107,
      "관심": 3108,
      "##벨": 3109,
      "공항": 3110,
      "냈다": 3111,
      "##세대": 3112,
      "##행위": 3113,
      "이익": 3114,
      "소속사": 3115,
      "주말": 3116,
      "##렴": 3117,
      "보니": 3118,
      "##수사": 3119,
      "같": 3120,
      "토론": 3121,
      "##꼬": 3122,
      "반도체": 3123,
      "잘못": 3124,
      "자본": 3125,
      "인한": 3126,
      "##14": 3127,
      "색": 3128,
      "콘서트": 3129,
      "대표가": 3130,
      "b": 3131,
      "뒷": 3132,
      "신한은행": 3133,
      "절반": 3134,
      "질문": 3135,
      "의원이": 3136,
      "중요": 3137,
      "방어": 3138,
      "##비가": 3139,
      "착": 3140,
      "잠실": 3141,
      "##and": 3142,
      "칸": 3143,
      "구글": 3144,
      "##증권": 3145,
      "드러냈다": 3146,
      "괴": 3147,
      "가까운": 3148,
      "부탁": 3149,
      "기록한": 3150,
      "##지에": 3151,
      "##FC": 3152,
      "##시킨": 3153,
      "##전문": 3154,
      "되지": 3155,
      "밝": 3156,
      "불리는": 3157,
      "##트라": 3158,
      "국회의원": 3159,
      "##앙": 3160,
      "익": 3161,
      "##콜": 3162,
      "혜택": 3163,
      "발행": 3164,
      "권력": 3165,
      "있었": 3166,
      "베이징": 3167,
      "##06": 3168,
      "신문": 3169,
      "종교": 3170,
      "##베이": 3171,
      "지역에": 3172,
      "2001": 3173,
      "이정": 3174,
      "그를": 3175,
      "##로써": 3176,
      "##하나": 3177,
      "공부": 3178,
      "##리지": 3179,
      "써": 3180,
      "태양": 3181,
      "##활": 3182,
      "의심": 3183,
      "둔": 3184,
      "품": 3185,
      "적극": 3186,
      "tvN": 3187,
      "기초": 3188,
      "##겠다고": 3189,
      "다니": 3190,
      "##지로": 3191,
      "형식": 3192,
      "호흡": 3193,
      "코치": 3194,
      "##밖에": 3195,
      "##니스": 3196,
      "항상": 3197,
      "자산": 3198,
      "별도": 3199,
      "법정": 3200,
      "하는데": 3201,
      "진술": 3202,
      "개편": 3203,
      "##04": 3204,
      "민주": 3205,
      "##묘": 3206,
      "밑": 3207,
      "최선": 3208,
      "지하철": 3209,
      "##59": 3210,
      "##계획": 3211,
      "당초": 3212,
      "되면": 3213,
      "싶은": 3214,
      "조작": 3215,
      "잡았다": 3216,
      "##김": 3217,
      "특검": 3218,
      "했": 3219,
      "실력": 3220,
      "동생": 3221,
      "살해": 3222,
      "##싸": 3223,
      "41": 3224,
      "들고": 3225,
      "##만달러": 3226,
      "기업들": 3227,
      "##펜": 3228,
      "최저임금": 3229,
      "체계": 3230,
      "플랫폼": 3231,
      "볼넷": 3232,
      "가르": 3233,
      "지역에서": 3234,
      "The": 3235,
      "##08": 3236,
      "##연구": 3237,
      "받지": 3238,
      "마이": 3239,
      "##장관": 3240,
      "주가": 3241,
      "대만": 3242,
      "선고": 3243,
      "수용": 3244,
      "##un": 3245,
      "##닥": 3246,
      "맡았다": 3247,
      "남부": 3248,
      "크리스": 3249,
      "공을": 3250,
      "미국과": 3251,
      "##하려고": 3252,
      "내렸다": 3253,
      "##28": 3254,
      "획득": 3255,
      "##86": 3256,
      "##군이": 3257,
      "승리했다": 3258,
      "##호를": 3259,
      "##4000": 3260,
      "##13": 3261,
      "흑": 3262,
      "헬": 3263,
      "##200": 3264,
      "##회에서": 3265,
      "##900": 3266,
      "전주": 3267,
      "성격": 3268,
      "계약을": 3269,
      "자동": 3270,
      "실수": 3271,
      "그때": 3272,
      "##힐": 3273,
      "##해졌다": 3274,
      "##구조": 3275,
      "상장": 3276,
      "##il": 3277,
      "구체적": 3278,
      "##끼": 3279,
      "채널": 3280,
      "##지지": 3281,
      "강원도": 3282,
      "##찌": 3283,
      "##량이": 3284,
      "43": 3285,
      "탑재": 3286,
      "구성된": 3287,
      "제목": 3288,
      "블": 3289,
      "##쉬": 3290,
      "보이는": 3291,
      "전면": 3292,
      "경계": 3293,
      "복지": 3294,
      "##부를": 3295,
      "찾는": 3296,
      "확산": 3297,
      "거듭": 3298,
      "런던": 3299,
      "##국장": 3300,
      "##부가": 3301,
      "평소": 3302,
      "다이": 3303,
      "맡은": 3304,
      "##23": 3305,
      "밟": 3306,
      "벽": 3307,
      "메이": 3308,
      "44": 3309,
      "##79": 3310,
      "명예": 3311,
      "열차": 3312,
      "사용자": 3313,
      "##진영": 3314,
      "##35": 3315,
      "완화": 3316,
      "의한": 3317,
      "밴드": 3318,
      "##졌고": 3319,
      "##학년": 3320,
      "정식": 3321,
      "불리": 3322,
      "물리": 3323,
      "##텍": 3324,
      "49": 3325,
      "##더라도": 3326,
      "오른쪽": 3327,
      "주문": 3328,
      "##핀": 3329,
      "원정": 3330,
      "북미": 3331,
      "##덴": 3332,
      "느끼": 3333,
      "명령": 3334,
      "##27": 3335,
      "##좋": 3336,
      "말이": 3337,
      "경고": 3338,
      "##as": 3339,
      "사는": 3340,
      "취지": 3341,
      "특별한": 3342,
      "올린": 3343,
      "65": 3344,
      "무사": 3345,
      "##하다는": 3346,
      "등과": 3347,
      "##리오": 3348,
      "근로자": 3349,
      "부여": 3350,
      "시작으로": 3351,
      "감염": 3352,
      "이들의": 3353,
      "생명": 3354,
      "##경기에서": 3355,
      "상징": 3356,
      "##주가": 3357,
      "영입": 3358,
      "보이고": 3359,
      "다수": 3360,
      "##Y": 3361,
      "추격": 3362,
      "##ir": 3363,
      "갑": 3364,
      "t": 3365,
      "명단": 3366,
      "경북": 3367,
      "소통": 3368,
      "##었는데": 3369,
      "아빠": 3370,
      "내용이": 3371,
      "월드": 3372,
      "##랭": 3373,
      "건축": 3374,
      "적시타": 3375,
      "않으면": 3376,
      "##보는": 3377,
      "임대": 3378,
      "한국당": 3379,
      "포항": 3380,
      "열심히": 3381,
      "반드시": 3382,
      "시장에서": 3383,
      "초청": 3384,
      "##흐": 3385,
      "없었": 3386,
      "##밴": 3387,
      "역임": 3388,
      "평창": 3389,
      "모아": 3390,
      "##텐": 3391,
      "사무": 3392,
      "한국인": 3393,
      "영업이익": 3394,
      "이론": 3395,
      "##오는": 3396,
      "등에서": 3397,
      "가슴": 3398,
      "##09": 3399,
      "본사": 3400,
      "##자동차": 3401,
      "영역": 3402,
      "도움이": 3403,
      "의회": 3404,
      "저녁": 3405,
      "##일간": 3406,
      "대한항공": 3407,
      "동의": 3408,
      "후원": 3409,
      "사이트": 3410,
      "##98": 3411,
      "시위": 3412,
      "기자회견": 3413,
      "##96": 3414,
      "욕": 3415,
      "##87": 3416,
      "##스카": 3417,
      "남아": 3418,
      "##스포츠": 3419,
      "홀": 3420,
      "##믿": 3421,
      "여기": 3422,
      "인력": 3423,
      "묘": 3424,
      "출마": 3425,
      "희": 3426,
      "##정을": 3427,
      "정체": 3428,
      "##영화": 3429,
      "쉬": 3430,
      "탄생": 3431,
      "##체육": 3432,
      "##초등학교": 3433,
      "열어": 3434,
      "받는다": 3435,
      "당신": 3436,
      "개념": 3437,
      "직원들": 3438,
      "##공항": 3439,
      "##mm": 3440,
      "##륙": 3441,
      "##뉴": 3442,
      "인권": 3443,
      "##94": 3444,
      "##께": 3445,
      "사이에서": 3446,
      "없을": 3447,
      "현지시각": 3448,
      "했던": 3449,
      "직전": 3450,
      "수도권": 3451,
      "##안전": 3452,
      "마르": 3453,
      "##셀": 3454,
      "CEO": 3455,
      "##첩": 3456,
      "그려졌다": 3457,
      "##넷": 3458,
      "46": 3459,
      "하나로": 3460,
      "연락": 3461,
      "##잔": 3462,
      "만약": 3463,
      "##대에": 3464,
      "##민은": 3465,
      "상무": 3466,
      "본다": 3467,
      "열었다": 3468,
      "종류": 3469,
      "##본부장": 3470,
      "400": 3471,
      "##으려": 3472,
      "##하우스": 3473,
      "##릿": 3474,
      "##고속도로": 3475,
      "아주": 3476,
      "헌": 3477,
      "##페이": 3478,
      "##럽": 3479,
      "국방부": 3480,
      "##89": 3481,
      "탄핵": 3482,
      "##26": 3483,
      "##53": 3484,
      "##낭": 3485,
      "##하다가": 3486,
      "##시키고": 3487,
      "출범": 3488,
      "FIFA": 3489,
      "성남": 3490,
      "대표적인": 3491,
      "75": 3492,
      "##장과": 3493,
      "마쳤다": 3494,
      "경쟁력": 3495,
      "됐": 3496,
      "그녀는": 3497,
      "센터": 3498,
      "클래식": 3499,
      "##받았다": 3500,
      "##8000": 3501,
      "##게임": 3502,
      "1980": 3503,
      "뇌": 3504,
      "영향": 3505,
      "##줬": 3506,
      "##제도": 3507,
      "금액": 3508,
      "청소년": 3509,
      "##이란": 3510,
      "출판": 3511,
      "관계를": 3512,
      "하자": 3513,
      "CJ": 3514,
      "지속적": 3515,
      "외교부": 3516,
      "요즘": 3517,
      "합병": 3518,
      "육군": 3519,
      "쓸": 3520,
      "##자금": 3521,
      "입주": 3522,
      "논": 3523,
      "진입": 3524,
      "##cm": 3525,
      "##성장": 3526,
      "고양": 3527,
      "##서비스": 3528,
      "요소": 3529,
      "##랄": 3530,
      "멕시코": 3531,
      "상반기": 3532,
      "47": 3533,
      "계열사": 3534,
      "##환경": 3535,
      "없고": 3536,
      "활성화": 3537,
      "심사": 3538,
      "##92": 3539,
      "프레": 3540,
      "51": 3541,
      "앱": 3542,
      "##정은": 3543,
      "##개혁": 3544,
      "분리": 3545,
      "다양": 3546,
      "아베": 3547,
      "네이버": 3548,
      "##연금": 3549,
      "남은": 3550,
      "중요하다": 3551,
      "##더니": 3552,
      "김동": 3553,
      "상위": 3554,
      "다소": 3555,
      "##함으로써": 3556,
      "마리": 3557,
      "뿐만": 3558,
      "the": 3559,
      "사기": 3560,
      "일단": 3561,
      "##르는": 3562,
      "참석해": 3563,
      "##07": 3564,
      "##룬": 3565,
      "##쯤": 3566,
      "지금은": 3567,
      "승인": 3568,
      "좋지": 3569,
      "파견": 3570,
      "강원": 3571,
      "작용": 3572,
      "##지구": 3573,
      "IS": 3574,
      "##감이": 3575,
      "대기": 3576,
      "했고": 3577,
      "##타수": 3578,
      "예비": 3579,
      "##머니": 3580,
      "없다고": 3581,
      "죽음": 3582,
      "##섬": 3583,
      "##97": 3584,
      "증가했다": 3585,
      "이틀": 3586,
      "##la": 3587,
      "남쪽": 3588,
      "굴": 3589,
      "가구": 3590,
      "동영상": 3591,
      "옛": 3592,
      "쉽지": 3593,
      "부과": 3594,
      "##라인": 3595,
      "##대상": 3596,
      "센": 3597,
      "회장이": 3598,
      "서울대": 3599,
      "적극적으로": 3600,
      "긴급": 3601,
      "인증": 3602,
      "주거": 3603,
      "응답": 3604,
      "##하였으나": 3605,
      "창원": 3606,
      "##57": 3607,
      "타이어뱅크": 3608,
      "범행": 3609,
      "사용하는": 3610,
      "투구": 3611,
      "##55": 3612,
      "플레이오프": 3613,
      "빠르게": 3614,
      "##럴": 3615,
      "충돌": 3616,
      "59": 3617,
      "표정": 3618,
      "끝난": 3619,
      "##om": 3620,
      "관객들": 3621,
      "떨": 3622,
      "빨리": 3623,
      "선출": 3624,
      "##졸": 3625,
      "오랜": 3626,
      "배경": 3627,
      "##느": 3628,
      "엘": 3629,
      "##22": 3630,
      "##꽃": 3631,
      "##빛": 3632,
      "장비": 3633,
      "이사장": 3634,
      "KCC": 3635,
      "##ia": 3636,
      "보냈다": 3637,
      "53": 3638,
      "발휘": 3639,
      "##휴": 3640,
      "틀": 3641,
      "##줘": 3642,
      "마치": 3643,
      "입고": 3644,
      "##알": 3645,
      "##루에서": 3646,
      "##즐": 3647,
      "지도": 3648,
      "폭행": 3649,
      "##부문": 3650,
      "도움을": 3651,
      "##펠": 3652,
      "늘어나": 3653,
      "지역의": 3654,
      "제외한": 3655,
      "고위": 3656,
      "##슛": 3657,
      "중에": 3658,
      "##흔": 3659,
      "EU": 3660,
      "것처럼": 3661,
      "##받는": 3662,
      "##스티": 3663,
      "흔들": 3664,
      "알게": 3665,
      "액": 3666,
      "##대책": 3667,
      "##수록": 3668,
      "c": 3669,
      "자아냈다": 3670,
      "눈에": 3671,
      "임원": 3672,
      "무실점": 3673,
      "##민이": 3674,
      "표준": 3675,
      "판사": 3676,
      "##ation": 3677,
      "옮겨": 3678,
      "나무": 3679,
      "정규": 3680,
      "반복": 3681,
      "##장의": 3682,
      "1999": 3683,
      "150": 3684,
      "가는": 3685,
      "##롭": 3686,
      "##딜": 3687,
      "Q": 3688,
      "##37": 3689,
      "갖춘": 3690,
      "##중앙": 3691,
      "##id": 3692,
      "마케팅": 3693,
      "##기록": 3694,
      "지식": 3695,
      "펼쳤다": 3696,
      "하나의": 3697,
      "보유": 3698,
      "##동안": 3699,
      "던지": 3700,
      "##ST": 3701,
      "미디어": 3702,
      "##협력": 3703,
      "바뀌": 3704,
      "썼다": 3705,
      "FA": 3706,
      "충분히": 3707,
      "들어서": 3708,
      "아동": 3709,
      "##신문": 3710,
      "가득": 3711,
      "돌려": 3712,
      "##내고": 3713,
      "쪽": 3714,
      "메르스": 3715,
      "극장": 3716,
      "56": 3717,
      "##한테": 3718,
      "군대": 3719,
      "보안": 3720,
      "잉글랜드": 3721,
      "삼진": 3722,
      "##山": 3723,
      "미국에서": 3724,
      "지진": 3725,
      "이민": 3726,
      "사랑을": 3727,
      "##비서관": 3728,
      "기분": 3729,
      "뭐": 3730,
      "택시": 3731,
      "손흥민": 3732,
      "##둘": 3733,
      "탓": 3734,
      "설정": 3735,
      "##웨": 3736,
      "##어로": 3737,
      "개의": 3738,
      "진정": 3739,
      "##트는": 3740,
      "신설": 3741,
      "라디오": 3742,
      "##룸": 3743,
      "동기": 3744,
      "##체를": 3745,
      "의장": 3746,
      "특성": 3747,
      "##발전": 3748,
      "##과학": 3749,
      "##체육관에서": 3750,
      "##면서도": 3751,
      "##사건": 3752,
      "대해서도": 3753,
      "##회의에서": 3754,
      "버전": 3755,
      "##6000": 3756,
      "##사에": 3757,
      "노출": 3758,
      "지사": 3759,
      "54": 3760,
      "##BC": 3761,
      "매일": 3762,
      "맡아": 3763,
      "트위터": 3764,
      "명칭": 3765,
      "북쪽": 3766,
      "그려": 3767,
      "##시대": 3768,
      "기대감": 3769,
      "##문학": 3770,
      "주석": 3771,
      "##물이": 3772,
      "##해온": 3773,
      "마친": 3774,
      "유사": 3775,
      "재판부는": 3776,
      "이혼": 3777,
      "##쥐": 3778,
      "선보였다": 3779,
      "묻": 3780,
      "인도네시아": 3781,
      "공감": 3782,
      "재개": 3783,
      "교사": 3784,
      "밥": 3785,
      "##44": 3786,
      "내린": 3787,
      "배출": 3788,
      "내야": 3789,
      "##쇠": 3790,
      "다리": 3791,
      "##47": 3792,
      "일상": 3793,
      "주자": 3794,
      "표시": 3795,
      "##다면": 3796,
      "싱가포르": 3797,
      "##단을": 3798,
      "##관이": 3799,
      "새롭게": 3800,
      "d": 3801,
      "채택": 3802,
      "오리온": 3803,
      "하반기": 3804,
      "위에": 3805,
      "최초": 3806,
      "경기에": 3807,
      "희생": 3808,
      "애니메이션": 3809,
      "바란다": 3810,
      "##려는": 3811,
      "황제": 3812,
      "책임을": 3813,
      "돌아가": 3814,
      "##83": 3815,
      "도중": 3816,
      "올려": 3817,
      "##현이": 3818,
      "주민들": 3819,
      "사법": 3820,
      "죄": 3821,
      "관광객": 3822,
      "2020": 3823,
      "##다른": 3824,
      "좋겠다": 3825,
      "##스케": 3826,
      "##ter": 3827,
      "위해서는": 3828,
      "봐": 3829,
      "##54": 3830,
      "부대": 3831,
      "박사": 3832,
      "아프리카": 3833,
      "인민": 3834,
      "손을": 3835,
      "미소": 3836,
      "방영": 3837,
      "교황": 3838,
      "생기": 3839,
      "상호": 3840,
      "##하다고": 3841,
      "사무실": 3842,
      "받으": 3843,
      "##배우": 3844,
      "탈출": 3845,
      "의식": 3846,
      "##시킬": 3847,
      "##만으로": 3848,
      "##았던": 3849,
      "##라스": 3850,
      "명이": 3851,
      "가량": 3852,
      "##AR": 3853,
      "예측": 3854,
      "동맹": 3855,
      "동점": 3856,
      "##단의": 3857,
      "##희는": 3858,
      "매주": 3859,
      "##어서": 3860,
      "MC": 3861,
      "1998": 3862,
      "집행": 3863,
      "다르다": 3864,
      "바이": 3865,
      "추정": 3866,
      "##올림픽": 3867,
      "구입": 3868,
      "이내": 3869,
      "##협정": 3870,
      "초등학교": 3871,
      "NH": 3872,
      "권리": 3873,
      "움직임": 3874,
      "훨씬": 3875,
      "##되기도": 3876,
      "##붙": 3877,
      "프로농구": 3878,
      "분노": 3879,
      "곳이": 3880,
      "챔피언": 3881,
      "모르": 3882,
      "펜": 3883,
      "점검": 3884,
      "총장": 3885,
      "5000": 3886,
      "##56": 3887,
      "출석": 3888,
      "##개로": 3889,
      "f": 3890,
      "##탈삼진": 3891,
      "주연": 3892,
      "##티브": 3893,
      "##차전에서": 3894,
      "##낸다": 3895,
      "##ad": 3896,
      "육성": 3897,
      "##씨와": 3898,
      "못하는": 3899,
      "하면서": 3900,
      "1997": 3901,
      "시상식": 3902,
      "##성의": 3903,
      "기원전": 3904,
      "악화": 3905,
      "여당": 3906,
      "##구장에서": 3907,
      "남녀": 3908,
      "##검사": 3909,
      "여의도": 3910,
      "듣고": 3911,
      "##픽": 3912,
      "처분": 3913,
      "얻어": 3914,
      "재무": 3915,
      "##36": 3916,
      "##기와": 3917,
      "북부": 3918,
      "있었지만": 3919,
      "강남구": 3920,
      "##휘": 3921,
      "나누": 3922,
      "##당한": 3923,
      "진단": 3924,
      "정치인": 3925,
      "보낸": 3926,
      "문자": 3927,
      "##사에서": 3928,
      "##소득": 3929,
      "펼쳐": 3930,
      "##단계": 3931,
      "무료": 3932,
      "##주를": 3933,
      "화제": 3934,
      "네덜란드": 3935,
      "필리핀": 3936,
      "##팩": 3937,
      "원하는": 3938,
      "태국": 3939,
      "동료": 3940,
      "기계": 3941,
      "소녀": 3942,
      "사퇴": 3943,
      "꼽": 3944,
      "도발": 3945,
      "예상된다": 3946,
      "교회": 3947,
      "임기": 3948,
      "57": 3949,
      "##피스": 3950,
      "화학": 3951,
      "운영하는": 3952,
      "신분": 3953,
      "이성": 3954,
      "점에서": 3955,
      "갑자기": 3956,
      "본선": 3957,
      "자리에서": 3958,
      "일종": 3959,
      "지도자": 3960,
      "##39": 3961,
      "봤다": 3962,
      "집에": 3963,
      "당했다": 3964,
      "화려한": 3965,
      "##J": 3966,
      "터키": 3967,
      "##선의": 3968,
      "그녀": 3969,
      "##박물관": 3970,
      "선수가": 3971,
      "리드": 3972,
      "넘게": 3973,
      "##아이": 3974,
      "철학": 3975,
      "만남": 3976,
      "단어": 3977,
      "마크": 3978,
      "##서울": 3979,
      "소련": 3980,
      "상하이": 3981,
      "더불어": 3982,
      "라인": 3983,
      "만화": 3984,
      "##굴": 3985,
      "스웨덴": 3986,
      "##러스": 3987,
      "향상": 3988,
      "아웃": 3989,
      "뜨거운": 3990,
      "비중": 3991,
      "##라이트": 3992,
      "유도": 3993,
      "지원을": 3994,
      "##선이": 3995,
      "61": 3996,
      "수정": 3997,
      "관세": 3998,
      "끌었다": 3999,
      "택": 4000,
      "##겁": 4001,
      "카페": 4002,
      "##룩": 4003,
      "소방": 4004,
      "부품": 4005,
      "##한다면": 4006,
      "세대": 4007,
      "##7000": 4008,
      "64": 4009,
      "폴": 4010,
      "벌어": 4011,
      "뒤에": 4012,
      "쌍": 4013,
      "셀": 4014,
      "하늘": 4015,
      "##전쟁": 4016,
      "##43": 4017,
      "##륜": 4018,
      "58": 4019,
      "영국의": 4020,
      "아이돌": 4021,
      "##촉": 4022,
      "김재": 4023,
      "##과정": 4024,
      "귀국": 4025,
      "잊": 4026,
      "벌어진": 4027,
      "시작된": 4028,
      "##메이": 4029,
      "##사단": 4030,
      "콘": 4031,
      "소프트웨어": 4032,
      "생각이": 4033,
      "고등학교": 4034,
      "가까이": 4035,
      "가졌다": 4036,
      "3000": 4037,
      "여기서": 4038,
      "##29": 4039,
      "##쉽": 4040,
      "활발": 4041,
      "##93": 4042,
      "통계": 4043,
      "KGC": 4044,
      "만루": 4045,
      "##ow": 4046,
      "중국이": 4047,
      "##질환": 4048,
      "##中": 4049,
      "##모토": 4050,
      "문학": 4051,
      "##스턴": 4052,
      "##밥": 4053,
      "##부에": 4054,
      "혜": 4055,
      "늘어난": 4056,
      "일반적으로": 4057,
      "｜": 4058,
      "나올": 4059,
      "향한": 4060,
      "##피안타": 4061,
      "블루": 4062,
      "##시스템": 4063,
      "개정안": 4064,
      "선박": 4065,
      "결합": 4066,
      "척": 4067,
      "##국제": 4068,
      "추가로": 4069,
      "연구원": 4070,
      "##멜": 4071,
      "로봇": 4072,
      "미리": 4073,
      "접수": 4074,
      "##른바": 4075,
      "못해": 4076,
      "##짜리": 4077,
      "후보는": 4078,
      "##봐야": 4079,
      "##ul": 4080,
      "##였고": 4081,
      "##석은": 4082,
      "##없는": 4083,
      "흥": 4084,
      "##하면서도": 4085,
      "인스타그램": 4086,
      "공화국": 4087,
      "풀어": 4088,
      "유로": 4089,
      "근처": 4090,
      "현지시간": 4091,
      "##흉": 4092,
      "##위가": 4093,
      "세금": 4094,
      "마이크": 4095,
      "##42": 4096,
      "운용": 4097,
      "##수의": 4098,
      "곽": 4099,
      "예선": 4100,
      "국민의": 4101,
      "맹": 4102,
      "액션": 4103,
      "##38": 4104,
      "긴장": 4105,
      "##덤": 4106,
      "요인": 4107,
      "##었으며": 4108,
      "##잇": 4109,
      "##려면": 4110,
      "화면": 4111,
      "앞선": 4112,
      "철저": 4113,
      "나오고": 4114,
      "백악관": 4115,
      "##훈련": 4116,
      "외에도": 4117,
      "가동": 4118,
      "##단이": 4119,
      "축하": 4120,
      "##스코": 4121,
      "미군": 4122,
      "동아일보": 4123,
      "##다운": 4124,
      "##앨": 4125,
      "##um": 4126,
      "몰아": 4127,
      "##듀": 4128,
      "##타워": 4129,
      "결정했다": 4130,
      "이사": 4131,
      "걸그룹": 4132,
      "깊은": 4133,
      "혈": 4134,
      "##문제": 4135,
      "했는데": 4136,
      "##했었다": 4137,
      "##적이고": 4138,
      "금메달": 4139,
      "유명한": 4140,
      "##관은": 4141,
      "##야구": 4142,
      "하여": 4143,
      "화재": 4144,
      "적은": 4145,
      "힘든": 4146,
      "통산": 4147,
      "##33": 4148,
      "우리은행": 4149,
      "커피": 4150,
      "이종": 4151,
      "##칼": 4152,
      "##34": 4153,
      "잡고": 4154,
      "예를": 4155,
      "미국이": 4156,
      "김상": 4157,
      "목적으로": 4158,
      "편집": 4159,
      "이름은": 4160,
      "제공한다": 4161,
      "사용할": 4162,
      "파이": 4163,
      "##흡": 4164,
      "불편": 4165,
      "의도": 4166,
      "말라": 4167,
      "##31": 4168,
      "##소리": 4169,
      "##포인트": 4170,
      "공모": 4171,
      "판정": 4172,
      "##옹": 4173,
      "##브라": 4174,
      "외에": 4175,
      "싸움": 4176,
      "뛰어난": 4177,
      "산하": 4178,
      "##닛": 4179,
      "입단": 4180,
      "##32": 4181,
      "Y": 4182,
      "호투": 4183,
      "주최": 4184,
      "이름으로": 4185,
      "범위": 4186,
      "##콤": 4187,
      "정기": 4188,
      "편성": 4189,
      "들어간": 4190,
      "목표로": 4191,
      "##릉": 4192,
      "##겼": 4193,
      "동쪽": 4194,
      "##시험": 4195,
      "수록": 4196,
      "워싱턴": 4197,
      "##곱": 4198,
      "이것은": 4199,
      "##비는": 4200,
      "##받아": 4201,
      "에어": 4202,
      "처음이다": 4203,
      "이기": 4204,
      "이어졌다": 4205,
      "##뿐만": 4206,
      "변신": 4207,
      "값": 4208,
      "잠시": 4209,
      "##BS": 4210,
      "##金": 4211,
      "마치고": 4212,
      "##하였": 4213,
      "세워": 4214,
      "베어스": 4215,
      "##석이": 4216,
      "기다리": 4217,
      "출연해": 4218,
      "##군에": 4219,
      "수치": 4220,
      "개입": 4221,
      "##「": 4222,
      "국회에서": 4223,
      "이끌어": 4224,
      "##쇄": 4225,
      "걸어": 4226,
      "식당": 4227,
      "상황에": 4228,
      "##억원으로": 4229,
      "1970": 4230,
      "때마다": 4231,
      "현금": 4232,
      "##봤다": 4233,
      "##보니": 4234,
      "##文": 4235,
      "계산": 4236,
      "##들로": 4237,
      "##ot": 4238,
      "주고": 4239,
      "정확한": 4240,
      "선사": 4241,
      "덕분에": 4242,
      "파괴": 4243,
      "##해달라": 4244,
      "주제": 4245,
      "출장": 4246,
      "확실": 4247,
      "서쪽": 4248,
      "##능력": 4249,
      "앙": 4250,
      "##sp": 4251,
      "극복": 4252,
      "띄": 4253,
      "성인": 4254,
      "상업": 4255,
      "##이지": 4256,
      "GS": 4257,
      "##되었": 4258,
      "##볼넷": 4259,
      "혁명": 4260,
      "##죽": 4261,
      "뮤지컬": 4262,
      "깜짝": 4263,
      "덜": 4264,
      "신임": 4265,
      "##캐": 4266,
      "##행사": 4267,
      "구분": 4268,
      "상황이다": 4269,
      "##세요": 4270,
      "놀라": 4271,
      "다섯": 4272,
      "하겠다": 4273,
      "폐쇄": 4274,
      "##op": 4275,
      "자신감": 4276,
      "태도": 4277,
      "창출": 4278,
      "좁": 4279,
      "이름이": 4280,
      "제작진": 4281,
      "스크린": 4282,
      "##타운": 4283,
      "##꾼": 4284,
      "참석한": 4285,
      "직업": 4286,
      "##내기": 4287,
      "##아메리카": 4288,
      "##ay": 4289,
      "빠진": 4290,
      "##보증": 4291,
      "만들고": 4292,
      "스토리": 4293,
      "##부의": 4294,
      "##91": 4295,
      "##300": 4296,
      "분석했다": 4297,
      "이래": 4298,
      "62": 4299,
      "##식이": 4300,
      "물질": 4301,
      "##램": 4302,
      "새벽": 4303,
      "강력": 4304,
      "알려": 4305,
      "##딘": 4306,
      "##프리": 4307,
      "1988": 4308,
      "##kg": 4309,
      "##ne": 4310,
      "1995": 4311,
      "총재": 4312,
      "##se": 4313,
      "중구": 4314,
      "펼치": 4315,
      "##예술": 4316,
      "싶어": 4317,
      "##크로": 4318,
      "들여": 4319,
      "##군을": 4320,
      "원장": 4321,
      "쓰는": 4322,
      "이끌었다": 4323,
      "마약": 4324,
      "##교통": 4325,
      "바이오": 4326,
      "##톱": 4327,
      "##보면": 4328,
      "세우": 4329,
      "##GM": 4330,
      "개통": 4331,
      "촉구": 4332,
      "포즈": 4333,
      "모여": 4334,
      "##흘": 4335,
      "이전에": 4336,
      "호소": 4337,
      "##부장": 4338,
      "##진흥": 4339,
      "현장에서": 4340,
      "##단지": 4341,
      "땅볼": 4342,
      "##제로": 4343,
      "타율": 4344,
      "형제": 4345,
      "곳에": 4346,
      "##에만": 4347,
      "비행": 4348,
      "##보호": 4349,
      "일어난": 4350,
      "##매치": 4351,
      "단일": 4352,
      "##공장": 4353,
      "대표이사": 4354,
      "자치": 4355,
      "생존": 4356,
      "적절": 4357,
      "즐기": 4358,
      "##우가": 4359,
      "징계": 4360,
      "차관": 4361,
      "댓글": 4362,
      "##감독": 4363,
      "생긴": 4364,
      "담긴": 4365,
      "이슬람": 4366,
      "선수단": 4367,
      "안양": 4368,
      "##스토": 4369,
      "코스": 4370,
      "출연했다": 4371,
      "무대에": 4372,
      "##경은": 4373,
      "복수": 4374,
      "사건이": 4375,
      "전개": 4376,
      "대리": 4377,
      "서부": 4378,
      "지점": 4379,
      "스테": 4380,
      "벗어나": 4381,
      "축제": 4382,
      "살펴": 4383,
      "##기획": 4384,
      "양성": 4385,
      "바라": 4386,
      "##프라": 4387,
      "##놀": 4388,
      "##상은": 4389,
      "게이": 4390,
      "프리미엄": 4391,
      "불만": 4392,
      "달려": 4393,
      "국정원": 4394,
      "##600": 4395,
      "얻었다": 4396,
      "배터리": 4397,
      "허위": 4398,
      "영화를": 4399,
      "이들이": 4400,
      "시장에": 4401,
      "기업이": 4402,
      "불펜": 4403,
      "1994": 4404,
      "인하": 4405,
      "유일한": 4406,
      "##덩": 4407,
      "허가": 4408,
      "고통": 4409,
      "공약": 4410,
      "최씨": 4411,
      "부사장": 4412,
      "63": 4413,
      "형태로": 4414,
      "사장은": 4415,
      "##뢰": 4416,
      "##學": 4417,
      "피부": 4418,
      "##렀": 4419,
      "##첨": 4420,
      "##선거": 4421,
      "검증": 4422,
      "##기준": 4423,
      "##함이": 4424,
      "청주": 4425,
      "한국시간": 4426,
      "최순실": 4427,
      "있었고": 4428,
      "왔": 4429,
      "포스코": 4430,
      "예방": 4431,
      "앞세워": 4432,
      "제공하는": 4433,
      "##세의": 4434,
      "##48": 4435,
      "친구들": 4436,
      "파일": 4437,
      "선보이": 4438,
      "엠": 4439,
      "점점": 4440,
      "##65": 4441,
      "##젤": 4442,
      "##李": 4443,
      "##자에게": 4444,
      "St": 4445,
      "66": 4446,
      "##IC": 4447,
      "##뇌": 4448,
      "##버리": 4449,
      "##밍": 4450,
      "고백": 4451,
      "##화된": 4452,
      "복합": 4453,
      "같아": 4454,
      "이어진": 4455,
      "않겠다": 4456,
      "있으면": 4457,
      "계기로": 4458,
      "측정": 4459,
      "##셰": 4460,
      "##컷": 4461,
      "기독교": 4462,
      "징": 4463,
      "시내": 4464,
      "제거": 4465,
      "고소": 4466,
      "##국가": 4467,
      "##j": 4468,
      "해소": 4469,
      "##략": 4470,
      "##지게": 4471,
      "1996": 4472,
      "##타를": 4473,
      "여론": 4474,
      "네트워크": 4475,
      "##띠": 4476,
      "구조조정": 4477,
      "부분이": 4478,
      "성능": 4479,
      "라이브": 4480,
      "자리에": 4481,
      "출입": 4482,
      "미세먼지": 4483,
      "어깨": 4484,
      "##호로": 4485,
      "본격": 4486,
      "고급": 4487,
      "공포": 4488,
      "##ut": 4489,
      "에이스": 4490,
      "##윈": 4491,
      "시청자들": 4492,
      "내에서": 4493,
      "끝까지": 4494,
      "인공지능": 4495,
      "속하는": 4496,
      "개봉한": 4497,
      "승강장": 4498,
      "뇌물": 4499,
      "연극": 4500,
      "##즘": 4501,
      "누적": 4502,
      "재미": 4503,
      "동일": 4504,
      "##신도시": 4505,
      "경기장": 4506,
      "장식": 4507,
      "진행됐다": 4508,
      "##교회": 4509,
      "성폭행": 4510,
      "우려가": 4511,
      "##공단": 4512,
      "대해서": 4513,
      "##짓": 4514,
      "집회": 4515,
      "##조정": 4516,
      "입증": 4517,
      "전원": 4518,
      "##시마": 4519,
      "하기": 4520,
      "축소": 4521,
      "고발": 4522,
      "주의": 4523,
      "맞이": 4524,
      "북한은": 4525,
      "만들기": 4526,
      "##씨에게": 4527,
      "중반": 4528,
      "문서": 4529,
      "장르": 4530,
      "검색": 4531,
      "통상": 4532,
      "신호": 4533,
      "만한": 4534,
      "감동": 4535,
      "느껴": 4536,
      "동아": 4537,
      "능": 4538,
      "##동에": 4539,
      "세월호": 4540,
      "캠프": 4541,
      "누가": 4542,
      "김수": 4543,
      "곧바": 4544,
      "발달": 4545,
      "##범죄": 4546,
      "##봐": 4547,
      "신용": 4548,
      "느": 4549,
      "폭력": 4550,
      "숫자": 4551,
      "##2000": 4552,
      "김진": 4553,
      "결론": 4554,
      "인정받": 4555,
      "측면": 4556,
      "경력": 4557,
      "파트너": 4558,
      "칭찬": 4559,
      "유치": 4560,
      "모집": 4561,
      "##따": 4562,
      "맡고": 4563,
      "##깃": 4564,
      "##li": 4565,
      "전까지": 4566,
      "해상": 4567,
      "영향력": 4568,
      "##lo": 4569,
      "이듬해": 4570,
      "매출액": 4571,
      "분야에서": 4572,
      "늘리": 4573,
      "##명이다": 4574,
      "들어갔다": 4575,
      "##72": 4576,
      "내고": 4577,
      "노동자": 4578,
      "찬성": 4579,
      "우수": 4580,
      "김기": 4581,
      "까지": 4582,
      "무리": 4583,
      "후속": 4584,
      "##위안": 4585,
      "짐": 4586,
      "승리로": 4587,
      "취하고": 4588,
      "##조차": 4589,
      "##학적": 4590,
      "##²": 4591,
      "##으니": 4592,
      "##상품": 4593,
      "##닌": 4594,
      "##400": 4595,
      "전기차": 4596,
      "상처": 4597,
      "중국은": 4598,
      "##nd": 4599,
      "##야마": 4600,
      "무려": 4601,
      "유니": 4602,
      "제주도": 4603,
      "편의": 4604,
      "사항": 4605,
      "##닭": 4606,
      "최고위원": 4607,
      "사라": 4608,
      "연말": 4609,
      "답변": 4610,
      "주력": 4611,
      "벌금": 4612,
      "##51": 4613,
      "##토리": 4614,
      "##하니": 4615,
      "##하라고": 4616,
      "환율": 4617,
      "굉장": 4618,
      "##펀드": 4619,
      "현재까지": 4620,
      "쏠": 4621,
      "넘겨": 4622,
      "##밤": 4623,
      "##았고": 4624,
      "공연을": 4625,
      "마음이": 4626,
      "72": 4627,
      "번역": 4628,
      "진실": 4629,
      "##실에서": 4630,
      "통제": 4631,
      "법적": 4632,
      "##학원": 4633,
      "위하여": 4634,
      "주제로": 4635,
      "돌아온": 4636,
      "받게": 4637,
      "##웰": 4638,
      "국가대표": 4639,
      "뮤직": 4640,
      "세운": 4641,
      "오사카": 4642,
      "##PO": 4643,
      "실행": 4644,
      "혼란": 4645,
      "##면세점": 4646,
      "PC": 4647,
      "##워크": 4648,
      "입학": 4649,
      "베이": 4650,
      "떨어졌다": 4651,
      "조기": 4652,
      "갔다": 4653,
      "팀을": 4654,
      "완료": 4655,
      "##州": 4656,
      "##뼈": 4657,
      "오바마": 4658,
      "줄어들": 4659,
      "68": 4660,
      "##투표": 4661,
      "##잎": 4662,
      "##번호": 4663,
      "접촉": 4664,
      "##복지": 4665,
      "팀은": 4666,
      "120": 4667,
      "안내": 4668,
      "##켜": 4669,
      "거절": 4670,
      "67": 4671,
      "법무부": 4672,
      "##렀다": 4673,
      "##포럼": 4674,
      "시리아": 4675,
      "##생명": 4676,
      "맞추": 4677,
      "당장": 4678,
      "기울": 4679,
      "##리어": 4680,
      "##룰": 4681,
      "해명": 4682,
      "##패로": 4683,
      "##공학": 4684,
      "##랐다": 4685,
      "드러났다": 4686,
      "##영이": 4687,
      "명확": 4688,
      "##고등학교": 4689,
      "현행": 4690,
      "입은": 4691,
      "판매량": 4692,
      "이행": 4693,
      "발견된": 4694,
      "합격": 4695,
      "분쟁": 4696,
      "황금": 4697,
      "##드로": 4698,
      "##틸": 4699,
      "차원에서": 4700,
      "한정": 4701,
      "##아웃": 4702,
      "##나갔다": 4703,
      "쓰고": 4704,
      "##들어": 4705,
      "위원": 4706,
      "##리바운드": 4707,
      "나눠": 4708,
      "무슨": 4709,
      "##달라고": 4710,
      "##화학": 4711,
      "리더": 4712,
      "특허": 4713,
      "##te": 4714,
      "##52": 4715,
      "보상": 4716,
      "##ce": 4717,
      "##빵": 4718,
      "부장판사": 4719,
      "김현": 4720,
      "과제": 4721,
      "분명": 4722,
      "##도서관": 4723,
      "여러분": 4724,
      "지적이": 4725,
      "##받고": 4726,
      "대회에서": 4727,
      "세웠다": 4728,
      "찾은": 4729,
      "한국과": 4730,
      "원전": 4731,
      "##떼": 4732,
      "물건": 4733,
      "사람들은": 4734,
      "##TO": 4735,
      "##됐지만": 4736,
      "빠지": 4737,
      "뛰어": 4738,
      "교류": 4739,
      "자원": 4740,
      "자극": 4741,
      "##호의": 4742,
      "선호": 4743,
      "묵": 4744,
      "것이었다": 4745,
      "펼치고": 4746,
      "타이틀": 4747,
      "지어": 4748,
      "전파": 4749,
      "수립": 4750,
      "##롤": 4751,
      "##권이": 4752,
      "##돼야": 4753,
      "##항공": 4754,
      "열린다": 4755,
      "##뷰": 4756,
      "살고": 4757,
      "감독과": 4758,
      "##해주는": 4759,
      "자이언츠": 4760,
      "##텔레콤": 4761,
      "요금": 4762,
      "##경영": 4763,
      "##선은": 4764,
      "먹는": 4765,
      "##플러스": 4766,
      "##→": 4767,
      "이영": 4768,
      "업종": 4769,
      "##제품": 4770,
      "위로": 4771,
      "##ss": 4772,
      "연기를": 4773,
      "##겠지만": 4774,
      "줄었다": 4775,
      "소장": 4776,
      "##렸고": 4777,
      "이주": 4778,
      "떨어져": 4779,
      "한국에서": 4780,
      "선수로": 4781,
      "충남": 4782,
      "얼": 4783,
      "건너": 4784,
      "##분쯤": 4785,
      "성명": 4786,
      "선배": 4787,
      "전역": 4788,
      "예전": 4789,
      "##됨": 4790,
      "이사회": 4791,
      "제약": 4792,
      "출연한": 4793,
      "장치": 4794,
      "결제": 4795,
      "회계": 4796,
      "왕국": 4797,
      "카카오": 4798,
      "선전": 4799,
      "발굴": 4800,
      "증명": 4801,
      "유격수": 4802,
      "##PS": 4803,
      "생방송": 4804,
      "보이지": 4805,
      "##ou": 4806,
      "머물": 4807,
      "##해도": 4808,
      "##國": 4809,
      "히어로즈": 4810,
      "협": 4811,
      "조언": 4812,
      "펀드": 4813,
      "##이어서": 4814,
      "장착": 4815,
      "만났다": 4816,
      "##ig": 4817,
      "참석했다": 4818,
      "##9000": 4819,
      "##디스플레이": 4820,
      "복잡": 4821,
      "때도": 4822,
      "때부터": 4823,
      "한계": 4824,
      "태어났다": 4825,
      "김경": 4826,
      "##가격": 4827,
      "##클럽": 4828,
      "준다": 4829,
      "##바르": 4830,
      "##ac": 4831,
      "차별": 4832,
      "관할": 4833,
      "##100": 4834,
      "파워": 4835,
      "##공간": 4836,
      "스타트업": 4837,
      "안타를": 4838,
      "##기기": 4839,
      "85": 4840,
      "최저": 4841,
      "##르트": 4842,
      "결승전": 4843,
      "이슈": 4844,
      "공기": 4845,
      "막아": 4846,
      "인프라": 4847,
      "빨": 4848,
      "신화": 4849,
      "박정": 4850,
      "##0": 4851,
      "나중에": 4852,
      "포수": 4853,
      "짧은": 4854,
      "전부터": 4855,
      "마감": 4856,
      "##관광": 4857,
      "##대학원": 4858,
      "##셋": 4859,
      "##얀": 4860,
      "벨": 4861,
      "뒤집": 4862,
      "##투어": 4863,
      "##95": 4864,
      "천안": 4865,
      "비디오": 4866,
      "그쳤다": 4867,
      "Ch": 4868,
      "##테크": 4869,
      "##무역": 4870,
      "원을": 4871,
      "상승세": 4872,
      "성향": 4873,
      "통보": 4874,
      "힘입어": 4875,
      "뿌리": 4876,
      "신체": 4877,
      "플라": 4878,
      "의원들": 4879,
      "지냈다": 4880,
      "미니": 4881,
      "##하시": 4882,
      "마찬가지로": 4883,
      "경제적": 4884,
      "식사": 4885,
      "아름다운": 4886,
      "국경": 4887,
      "균형": 4888,
      "##실내체육관에서": 4889,
      "국방": 4890,
      "신라": 4891,
      "스위스": 4892,
      "##비치": 4893,
      "해체": 4894,
      "채권": 4895,
      "##켄": 4896,
      "나타내": 4897,
      "##듣": 4898,
      "##필드": 4899,
      "##틱": 4900,
      "기반으로": 4901,
      "오늘날": 4902,
      "정비": 4903,
      "사정": 4904,
      "정치권": 4905,
      "역량": 4906,
      "국내에서": 4907,
      "조합": 4908,
      "의결": 4909,
      "연계": 4910,
      "전자랜드": 4911,
      "간의": 4912,
      "석유": 4913,
      "선수들의": 4914,
      "1987": 4915,
      "휴식": 4916,
      "발생했다": 4917,
      "##os": 4918,
      "그녀의": 4919,
      "갤럭시": 4920,
      "##순위": 4921,
      "##분의": 4922,
      "경찰이": 4923,
      "힘이": 4924,
      "최대한": 4925,
      "화성": 4926,
      "제일": 4927,
      "##윌": 4928,
      "연애": 4929,
      "주행": 4930,
      "부처": 4931,
      "이것": 4932,
      "있으나": 4933,
      "##꾸": 4934,
      "자살": 4935,
      "널리": 4936,
      "연예": 4937,
      "확인됐다": 4938,
      "In": 4939,
      "주관": 4940,
      "##브리": 4941,
      "봤": 4942,
      "손실": 4943,
      "1992": 4944,
      "미국은": 4945,
      "진행한다": 4946,
      "##명과": 4947,
      "기쁨": 4948,
      "김용": 4949,
      "##등급": 4950,
      "따로": 4951,
      "대하여": 4952,
      "경주": 4953,
      "임직원": 4954,
      "노사": 4955,
      "69": 4956,
      "예약": 4957,
      "단위": 4958,
      "심판": 4959,
      "끝내": 4960,
      "제조업": 4961,
      "모습으로": 4962,
      "흐": 4963,
      "맞서": 4964,
      "##렛": 4965,
      "그냥": 4966,
      "경우에": 4967,
      "연설": 4968,
      "체력": 4969,
      "솔": 4970,
      "바꿔": 4971,
      "마시": 4972,
      "주지": 4973,
      "##순환": 4974,
      "주주": 4975,
      "설득": 4976,
      "홈경기": 4977,
      "타구": 4978,
      "지내": 4979,
      "다룬": 4980,
      "시인": 4981,
      "탈락": 4982,
      "##롬": 4983,
      "연봉": 4984,
      "##었으나": 4985,
      "수십": 4986,
      "손님": 4987,
      "폴란드": 4988,
      "##율이": 4989,
      "이중": 4990,
      "##너스": 4991,
      "##논": 4992,
      "군인": 4993,
      "상대적으로": 4994,
      "대해선": 4995,
      "컴백": 4996,
      "미술": 4997,
      "비판했다": 4998,
      "노인": 4999,
      "##숭": 5000,
      "실무": 5001,
      "서울특별시": 5002,
      "교육부": 5003,
      "만들어진": 5004,
      "출국": 5005,
      "자사": 5006,
      "항공기": 5007,
      "춤": 5008,
      "점령": 5009,
      "해주": 5010,
      "생각했다": 5011,
      "##셨": 5012,
      "방지": 5013,
      "##농협": 5014,
      "승객": 5015,
      "##ent": 5016,
      "본격적으로": 5017,
      "투자자들": 5018,
      "시신": 5019,
      "트윈스": 5020,
      "용산": 5021,
      "##me": 5022,
      "개별": 5023,
      "탈퇴": 5024,
      "밀어": 5025,
      "캠페인": 5026,
      "작곡": 5027,
      "공군": 5028,
      "한국에": 5029,
      "중국에서": 5030,
      "##75": 5031,
      "찾아가": 5032,
      "##넥": 5033,
      "임신": 5034,
      "##마저": 5035,
      "상영": 5036,
      "##달라": 5037,
      "보유한": 5038,
      "이용한": 5039,
      "소환": 5040,
      "바라보": 5041,
      "로드": 5042,
      "아쉬움": 5043,
      "평균자책점": 5044,
      "딱": 5045,
      "##3000": 5046,
      "오브": 5047,
      "##더스": 5048,
      "키우": 5049,
      "식품": 5050,
      "유력": 5051,
      "매매": 5052,
      "권한": 5053,
      "점이": 5054,
      "털": 5055,
      "장점": 5056,
      "##금리": 5057,
      "재직": 5058,
      "움직이": 5059,
      "행정부": 5060,
      "올랐": 5061,
      "힘들": 5062,
      "in": 5063,
      "점차": 5064,
      "##oc": 5065,
      "직무": 5066,
      "##퓨": 5067,
      "빠졌다": 5068,
      "않기": 5069,
      "관련한": 5070,
      "##타이": 5071,
      "스튜디오": 5072,
      "##샌": 5073,
      "반전": 5074,
      "##CC": 5075,
      "저장": 5076,
      "##가량": 5077,
      "##율을": 5078,
      "캘리포니아": 5079,
      "이끌": 5080,
      "도심": 5081,
      "법인": 5082,
      "보건": 5083,
      "유출": 5084,
      "오스트리아": 5085,
      "부당": 5086,
      "알려지": 5087,
      "전공": 5088,
      "동반": 5089,
      "목록": 5090,
      "Re": 5091,
      "##춤": 5092,
      "##빌딩": 5093,
      "74": 5094,
      "##하고자": 5095,
      "02": 5096,
      "진행했다": 5097,
      "##ie": 5098,
      "고대": 5099,
      "##쏘": 5100,
      "휴대전화": 5101,
      "##三": 5102,
      "검찰이": 5103,
      "1993": 5104,
      "엘리": 5105,
      "##수석": 5106,
      "콩": 5107,
      "주재": 5108,
      "암살": 5109,
      "심각한": 5110,
      "##호텔": 5111,
      "넣어": 5112,
      "무엇보다": 5113,
      "##자료": 5114,
      "붙잡": 5115,
      "국민연금": 5116,
      "##준다": 5117,
      "공립": 5118,
      "##대표팀": 5119,
      "있는지": 5120,
      "페르": 5121,
      "지정되었다": 5122,
      "친박": 5123,
      "##것": 5124,
      "무장": 5125,
      "비즈니스": 5126,
      "점수": 5127,
      "다루": 5128,
      "거둔": 5129,
      "내내": 5130,
      "1960": 5131,
      "코미디": 5132,
      "##사령관": 5133,
      "##주기": 5134,
      "합니다": 5135,
      "가격이": 5136,
      "##체계": 5137,
      "저지": 5138,
      "##으므로": 5139,
      "웹": 5140,
      "##놓고": 5141,
      "즐길": 5142,
      "이용할": 5143,
      "음원": 5144,
      "고정": 5145,
      "찾았다": 5146,
      "낮아": 5147,
      "73": 5148,
      "##놓": 5149,
      "기소된": 5150,
      "떠난": 5151,
      "프라": 5152,
      "폐기": 5153,
      "##워드": 5154,
      "##결과": 5155,
      "제임스": 5156,
      "실질적": 5157,
      "집권": 5158,
      "물량": 5159,
      "##45": 5160,
      "승진": 5161,
      "소년": 5162,
      "잡지": 5163,
      "1991": 5164,
      "##벼": 5165,
      "제정": 5166,
      "슈팅": 5167,
      "##88": 5168,
      "##맛": 5169,
      "말레이시아": 5170,
      "김주": 5171,
      "##드린다": 5172,
      "자신들": 5173,
      "##꺼": 5174,
      "연대": 5175,
      "용인": 5176,
      "원작": 5177,
      "코리아": 5178,
      "마지막으로": 5179,
      "지낸": 5180,
      "하나이다": 5181,
      "주전": 5182,
      "가로": 5183,
      "방탄소년단": 5184,
      "윌리엄": 5185,
      "##마자": 5186,
      "가격은": 5187,
      "##디스": 5188,
      "많았": 5189,
      "이상이": 5190,
      "마주": 5191,
      "##튜": 5192,
      "##종합": 5193,
      "방향으로": 5194,
      "진화": 5195,
      "농구": 5196,
      "대학생": 5197,
      "km": 5198,
      "면적은": 5199,
      "조각": 5200,
      "아니었다": 5201,
      "##렁": 5202,
      "##49": 5203,
      "실현": 5204,
      "사유": 5205,
      "꺼": 5206,
      "전세": 5207,
      "에스": 5208,
      "패스": 5209,
      "더블": 5210,
      "##경찰": 5211,
      "대단": 5212,
      "찬스": 5213,
      "수준으로": 5214,
      "##끄": 5215,
      "세계에서": 5216,
      "짜": 5217,
      "중국과": 5218,
      "##겹": 5219,
      "톱": 5220,
      "71": 5221,
      "소형": 5222,
      "01": 5223,
      "위기에": 5224,
      "600": 5225,
      "##캔": 5226,
      "남아있": 5227,
      "차단": 5228,
      "##끼리": 5229,
      "코드": 5230,
      "좋아하는": 5231,
      "##카와": 5232,
      "##믹": 5233,
      "개방": 5234,
      "84": 5235,
      "약간": 5236,
      "싶": 5237,
      "드러내": 5238,
      "연예인": 5239,
      "검찰에": 5240,
      "일본에서": 5241,
      "수학": 5242,
      "##렇": 5243,
      "##마켓": 5244,
      "되었고": 5245,
      "##여행": 5246,
      "##安": 5247,
      "구속영장": 5248,
      "##하나은행": 5249,
      "##시부터": 5250,
      "일제": 5251,
      "##대출": 5252,
      "공화당": 5253,
      "##롭게": 5254,
      "##ha": 5255,
      "정부와": 5256,
      "경선": 5257,
      "##디아": 5258,
      "둘러싼": 5259,
      "열정": 5260,
      "전설": 5261,
      "모임": 5262,
      "스포츠동아": 5263,
      "증가한": 5264,
      "##미터": 5265,
      "상담": 5266,
      "##국민": 5267,
      "용어": 5268,
      "통해서": 5269,
      "모았다": 5270,
      "뽑아": 5271,
      "말고": 5272,
      "청약": 5273,
      "추구": 5274,
      "문제로": 5275,
      "대폭": 5276,
      "회장의": 5277,
      "이뤄진": 5278,
      "고향": 5279,
      "물었다": 5280,
      "였다": 5281,
      "평가했다": 5282,
      "##자산": 5283,
      "둘째": 5284,
      "##식품": 5285,
      "수업": 5286,
      "투자자": 5287,
      "남겼다": 5288,
      "치른": 5289,
      "##터미널": 5290,
      "클라": 5291,
      "비행기": 5292,
      "##84": 5293,
      "강경": 5294,
      "의문": 5295,
      "##소송": 5296,
      "상승했다": 5297,
      "인재": 5298,
      "편지": 5299,
      "##으로써": 5300,
      "저희": 5301,
      "##르게": 5302,
      "국민들": 5303,
      "한화는": 5304,
      "진료": 5305,
      "시민들": 5306,
      "실점": 5307,
      "취득": 5308,
      "아르": 5309,
      "##회장": 5310,
      "끌고": 5311,
      "장애": 5312,
      "작품이다": 5313,
      "쥐": 5314,
      "이스라엘": 5315,
      "##부대": 5316,
      "이글스": 5317,
      "잡은": 5318,
      "여유": 5319,
      "할머니": 5320,
      "참여한": 5321,
      "인연": 5322,
      "나왔": 5323,
      "결성": 5324,
      "녹음": 5325,
      "치러": 5326,
      "국가대표팀": 5327,
      "수영": 5328,
      "받기": 5329,
      "시선을": 5330,
      "##아시아": 5331,
      "거론": 5332,
      "시대에": 5333,
      "먹고": 5334,
      "##둑": 5335,
      "일으키": 5336,
      "##사이트": 5337,
      "이라": 5338,
      "정지": 5339,
      "이수": 5340,
      "담아": 5341,
      "각자": 5342,
      "생각해": 5343,
      "대표하는": 5344,
      "##춰": 5345,
      "있어야": 5346,
      "03": 5347,
      "운전자": 5348,
      "상상": 5349,
      "자회사": 5350,
      "박수": 5351,
      "##상태": 5352,
      "활용해": 5353,
      "태평양": 5354,
      "1989": 5355,
      "막기": 5356,
      "##샷": 5357,
      "부총리": 5358,
      "튀": 5359,
      "##OC": 5360,
      "실시간": 5361,
      "##세포": 5362,
      "사용한": 5363,
      "##전략": 5364,
      "숲": 5365,
      "화장품": 5366,
      "현역": 5367,
      "DB": 5368,
      "중동": 5369,
      "효과가": 5370,
      "등장한": 5371,
      "똑같": 5372,
      "교환": 5373,
      "조약": 5374,
      "차트": 5375,
      "포함된": 5376,
      "##46": 5377,
      "##물질": 5378,
      "사안": 5379,
      "입법": 5380,
      "바닥": 5381,
      "부천": 5382,
      "록": 5383,
      "흘러": 5384,
      "##연합": 5385,
      "##지방": 5386,
      "집안": 5387,
      "강하게": 5388,
      "금융위": 5389,
      "나도": 5390,
      "##겠습니다": 5391,
      "부지": 5392,
      "독자": 5393,
      "배우들": 5394,
      "특유의": 5395,
      "##냥": 5396,
      "맥주": 5397,
      "이어갔다": 5398,
      "차지한": 5399,
      "안에서": 5400,
      "사로잡": 5401,
      "윈": 5402,
      "##해진다": 5403,
      "집에서": 5404,
      "공개됐다": 5405,
      "탑승": 5406,
      "위성": 5407,
      "데이": 5408,
      "##눌": 5409,
      "##교수": 5410,
      "추적": 5411,
      "재단": 5412,
      "허리": 5413,
      "번호": 5414,
      "북핵": 5415,
      "그간": 5416,
      "한때": 5417,
      "세트": 5418,
      "##SA": 5419,
      "것이라": 5420,
      "독일의": 5421,
      "곳에서": 5422,
      "본격적": 5423,
      "co": 5424,
      "농업": 5425,
      "##장치": 5426,
      "수단": 5427,
      "##음악": 5428,
      "경우도": 5429,
      "##공업": 5430,
      "##노동": 5431,
      "평생": 5432,
      "베스트": 5433,
      "않게": 5434,
      "##85": 5435,
      "##ap": 5436,
      "피의자": 5437,
      "해당하는": 5438,
      "감시": 5439,
      "물러": 5440,
      "무시": 5441,
      "불가능": 5442,
      "의존": 5443,
      "추세": 5444,
      "받아들이": 5445,
      "적발": 5446,
      "유니폼": 5447,
      "포착": 5448,
      "총괄": 5449,
      "의미한다": 5450,
      "공략": 5451,
      "연인": 5452,
      "공개한": 5453,
      "##랩": 5454,
      "보여주는": 5455,
      "정착": 5456,
      "식물": 5457,
      "변호인": 5458,
      "자전거": 5459,
      "감성": 5460,
      "쳐": 5461,
      "실내": 5462,
      "##핵": 5463,
      "##삭": 5464,
      "88": 5465,
      "조절": 5466,
      "있었는데": 5467,
      "테스트": 5468,
      "중국인": 5469,
      "관중": 5470,
      "운명": 5471,
      "내주": 5472,
      "구현": 5473,
      "주인": 5474,
      "칠": 5475,
      "대륙": 5476,
      "호남": 5477,
      "아이디어": 5478,
      "힐": 5479,
      "당황": 5480,
      "넘치는": 5481,
      "샘": 5482,
      "##SS": 5483,
      "롤": 5484,
      "이르는": 5485,
      "높였다": 5486,
      "##di": 5487,
      "솔직": 5488,
      "매입": 5489,
      "괜찮": 5490,
      "타이거즈": 5491,
      "폭로": 5492,
      "착수": 5493,
      "전후": 5494,
      "요구했다": 5495,
      "지목": 5496,
      "나타난": 5497,
      "가스": 5498,
      "##투수": 5499,
      "원유": 5500,
      "##푼": 5501,
      "##떡": 5502,
      "그렇다": 5503,
      "부장": 5504,
      "##레이션": 5505,
      "출산": 5506,
      "텐": 5507,
      "표기": 5508,
      "필수": 5509,
      "##포트": 5510,
      "PD": 5511,
      "칭": 5512,
      "지지율": 5513,
      "맞았다": 5514,
      "나갈": 5515,
      "프로야구": 5516,
      "시기에": 5517,
      "##뱅크": 5518,
      "비교적": 5519,
      "핵실험": 5520,
      "##저축은행": 5521,
      "멋진": 5522,
      "세포": 5523,
      "적자": 5524,
      "##픈": 5525,
      "이라면서": 5526,
      "논문": 5527,
      "선보이고": 5528,
      "후보로": 5529,
      "추락": 5530,
      "시사": 5531,
      "##껏": 5532,
      "장애인": 5533,
      "w": 5534,
      "##82": 5535,
      "그만큼": 5536,
      "SM": 5537,
      "무게": 5538,
      "##㈜": 5539,
      "나란히": 5540,
      "수집": 5541,
      "텔레비전": 5542,
      "가문": 5543,
      "증상": 5544,
      "##률이": 5545,
      "진보": 5546,
      "공천": 5547,
      "앉아": 5548,
      "##사무소": 5549,
      "##AC": 5550,
      "참고": 5551,
      "토지": 5552,
      "김준": 5553,
      "##킷": 5554,
      "붕괴": 5555,
      "노무현": 5556,
      "행진": 5557,
      "Z": 5558,
      "##프레": 5559,
      "도망": 5560,
      "UEFA": 5561,
      "##박스": 5562,
      "중학교": 5563,
      "태풍": 5564,
      "##협상": 5565,
      "협박": 5566,
      "국내외": 5567,
      "##함에": 5568,
      "##극장": 5569,
      "유래": 5570,
      "##마리": 5571,
      "##시장에서": 5572,
      "##당국": 5573,
      "##ER": 5574,
      "##르크": 5575,
      "오토": 5576,
      "기아차": 5577,
      "달하는": 5578,
      "대거": 5579,
      "있을지": 5580,
      "상주": 5581,
      "감소했다": 5582,
      "적어": 5583,
      "컸다": 5584,
      "돌입": 5585,
      "못할": 5586,
      "외환": 5587,
      "유전자": 5588,
      "##平": 5589,
      "비리": 5590,
      "장군": 5591,
      "측이": 5592,
      "해안": 5593,
      "사직": 5594,
      "말이다": 5595,
      "품질": 5596,
      "감각": 5597,
      "##東": 5598,
      "간부": 5599,
      "담겨": 5600,
      "맞고": 5601,
      "엄청난": 5602,
      "아울러": 5603,
      "점유율": 5604,
      "##all": 5605,
      "가리": 5606,
      "말았다": 5607,
      "나설": 5608,
      "이준": 5609,
      "부정적": 5610,
      "전부": 5611,
      "방문해": 5612,
      "나선다": 5613,
      "##II": 5614,
      "성공한": 5615,
      "협조": 5616,
      "서울중앙지검": 5617,
      "##셨다": 5618,
      "맡았": 5619,
      "안방": 5620,
      "##연대": 5621,
      "##스테": 5622,
      "영토": 5623,
      "가톨릭": 5624,
      "##시킨다": 5625,
      "상태에서": 5626,
      "원주": 5627,
      "안겼다": 5628,
      "##ab": 5629,
      "보급": 5630,
      "이태": 5631,
      "##돔": 5632,
      "베테랑": 5633,
      "듯한": 5634,
      "덮": 5635,
      "발언을": 5636,
      "임무": 5637,
      "신속": 5638,
      "무죄": 5639,
      "##톡": 5640,
      "##턱": 5641,
      "목숨": 5642,
      "##이라면": 5643,
      "골든": 5644,
      "코너": 5645,
      "러브": 5646,
      "날씨": 5647,
      "말한": 5648,
      "김모": 5649,
      "77": 5650,
      "화물": 5651,
      "높이는": 5652,
      "요시": 5653,
      "치르": 5654,
      "결혼식": 5655,
      "##sh": 5656,
      "있을까": 5657,
      "##특별": 5658,
      "직장": 5659,
      "##녕": 5660,
      "합동": 5661,
      "##짧": 5662,
      "가상": 5663,
      "개발한": 5664,
      "부활": 5665,
      "지도부": 5666,
      "매달": 5667,
      "공시": 5668,
      "##홀에서": 5669,
      "##리조트": 5670,
      "##DI": 5671,
      "아마": 5672,
      "비롯": 5673,
      "이외에": 5674,
      "##탱": 5675,
      "인지": 5676,
      "결심": 5677,
      "되기": 5678,
      "높아지": 5679,
      "고문": 5680,
      "##ard": 5681,
      "촉": 5682,
      "##해져": 5683,
      "메이저리그": 5684,
      "76": 5685,
      "심각": 5686,
      "대립": 5687,
      "만날": 5688,
      "신중": 5689,
      "아우": 5690,
      "웃었다": 5691,
      "각국": 5692,
      "차원": 5693,
      "##되는데": 5694,
      "동해": 5695,
      "보유하고": 5696,
      "지닌": 5697,
      "##조직": 5698,
      "코스닥": 5699,
      "이른다": 5700,
      "묻는": 5701,
      "전직": 5702,
      "##ve": 5703,
      "78": 5704,
      "오피스텔": 5705,
      "부른다": 5706,
      "치열한": 5707,
      "전세계": 5708,
      "##71": 5709,
      "##68": 5710,
      "##뿌": 5711,
      "당일": 5712,
      "국무총리": 5713,
      "쇼핑": 5714,
      "##팀장": 5715,
      "증인": 5716,
      "##im": 5717,
      "지수": 5718,
      "철강": 5719,
      "##깝": 5720,
      "##넌": 5721,
      "##67": 5722,
      "싶었다": 5723,
      "##같은": 5724,
      "레드": 5725,
      "마운드": 5726,
      "전망했다": 5727,
      "야마": 5728,
      "증권": 5729,
      "영화제": 5730,
      "##뉴스": 5731,
      "보복": 5732,
      "불교": 5733,
      "맞대결": 5734,
      "관여": 5735,
      "##베리": 5736,
      "신세계": 5737,
      "##드라": 5738,
      "집계": 5739,
      "노동당": 5740,
      "가리킨다": 5741,
      "유튜브": 5742,
      "개헌": 5743,
      "종로구": 5744,
      "구상": 5745,
      "##학회": 5746,
      "강릉": 5747,
      "고교": 5748,
      "##퀴": 5749,
      "##윗": 5750,
      "고려해": 5751,
      "통치": 5752,
      "내각": 5753,
      "##SC": 5754,
      "##OS": 5755,
      "파울": 5756,
      "않았고": 5757,
      "메인": 5758,
      "건조": 5759,
      "커플": 5760,
      "경험이": 5761,
      "하더라": 5762,
      "##펀": 5763,
      "마감했다": 5764,
      "##호텔에서": 5765,
      "모비스": 5766,
      "##부르크": 5767,
      "특집": 5768,
      "##사랑": 5769,
      "행사에": 5770,
      "멀": 5771,
      "보관": 5772,
      "##되었으나": 5773,
      "##77": 5774,
      "진행된다": 5775,
      "##76": 5776,
      "##킴": 5777,
      "태어난": 5778,
      "첨단": 5779,
      "바이러스": 5780,
      "들어오": 5781,
      "김승": 5782,
      "##처리": 5783,
      "팝": 5784,
      "##63": 5785,
      "존재한다": 5786,
      "몇몇": 5787,
      "규모가": 5788,
      "지연": 5789,
      "##69": 5790,
      "##엇": 5791,
      "여자친구": 5792,
      "추석": 5793,
      "##구나": 5794,
      "##NA": 5795,
      "##CL": 5796,
      "것인지": 5797,
      "대답": 5798,
      "비슷": 5799,
      "95": 5800,
      "##카운트": 5801,
      "직구": 5802,
      "##행정": 5803,
      "환영": 5804,
      "일주일": 5805,
      "##od": 5806,
      "##궐": 5807,
      "##시오": 5808,
      "##쁜": 5809,
      "##스쿨": 5810,
      "애정": 5811,
      "##블록": 5812,
      "경상북도": 5813,
      "와이번스": 5814,
      "급격": 5815,
      "소수": 5816,
      "침해": 5817,
      "공통": 5818,
      "묘사": 5819,
      "서명": 5820,
      "##받을": 5821,
      "세계적인": 5822,
      "##닷": 5823,
      "흥미": 5824,
      "##엉": 5825,
      "골키퍼": 5826,
      "자국": 5827,
      "장악": 5828,
      "보완": 5829,
      "소식통": 5830,
      "가게": 5831,
      "테마": 5832,
      "간담회": 5833,
      "승격": 5834,
      "##시키기": 5835,
      "성관계": 5836,
      "##했는지": 5837,
      "역사를": 5838,
      "찾기": 5839,
      "늘어": 5840,
      "이웃": 5841,
      "연령": 5842,
      "가치가": 5843,
      "##협의회": 5844,
      "##쫓": 5845,
      "##팬": 5846,
      "##액은": 5847,
      "친환경": 5848,
      "마찬가지": 5849,
      "##업자": 5850,
      "빼앗": 5851,
      "다녀": 5852,
      "각오": 5853,
      "##중학교": 5854,
      "메이저": 5855,
      "차기": 5856,
      "물어": 5857,
      "지켜보": 5858,
      "후보가": 5859,
      "조용": 5860,
      "저자": 5861,
      "덴마크": 5862,
      "항의": 5863,
      "##ge": 5864,
      "온도": 5865,
      "h": 5866,
      "멀티": 5867,
      "1985": 5868,
      "##교육청": 5869,
      "나아가": 5870,
      "김병": 5871,
      "지원하는": 5872,
      "##tion": 5873,
      "##뒀": 5874,
      "목격": 5875,
      "알렸다": 5876,
      "역사적": 5877,
      "##무라": 5878,
      "필요성": 5879,
      "선고했다": 5880,
      "단장": 5881,
      "연휴": 5882,
      "1500": 5883,
      "##人": 5884,
      "티켓": 5885,
      "수백": 5886,
      "추정된다": 5887,
      "##과학기술": 5888,
      "정유": 5889,
      "##클리": 5890,
      "몰랐": 5891,
      "곳은": 5892,
      "입국": 5893,
      "개설": 5894,
      "##헬": 5895,
      "없으": 5896,
      "계열": 5897,
      "##子": 5898,
      "사무총장": 5899,
      "소비자들": 5900,
      "인기가": 5901,
      "나누고": 5902,
      "##tr": 5903,
      "##캠퍼스": 5904,
      "셰프": 5905,
      "AP": 5906,
      "하락했다": 5907,
      "영광": 5908,
      "못한다": 5909,
      "해양": 5910,
      "선수이다": 5911,
      "보존": 5912,
      "심장": 5913,
      "##64": 5914,
      "마이클": 5915,
      "등급": 5916,
      "낼": 5917,
      "재활": 5918,
      "##줘야": 5919,
      "커뮤니티": 5920,
      "실업": 5921,
      "##ver": 5922,
      "##드라마": 5923,
      "의뢰": 5924,
      "음성": 5925,
      "##왔던": 5926,
      "##IA": 5927,
      "미만": 5928,
      "##ea": 5929,
      "댄스": 5930,
      "쌀": 5931,
      "##괄": 5932,
      "생겨": 5933,
      "##프트": 5934,
      "돌아오": 5935,
      "지표": 5936,
      "##갤": 5937,
      "펼친": 5938,
      "##맘": 5939,
      "챔피언스리그": 5940,
      "##ec": 5941,
      "서류": 5942,
      "적응": 5943,
      "금감원": 5944,
      "행보": 5945,
      "##교사": 5946,
      "한강": 5947,
      "그랜드": 5948,
      "종전": 5949,
      "걸린": 5950,
      "당한": 5951,
      "1986": 5952,
      "##78": 5953,
      "모른다": 5954,
      "참여했다": 5955,
      "대장": 5956,
      "가족들": 5957,
      "화제를": 5958,
      "##켓": 5959,
      "##코스": 5960,
      "SUV": 5961,
      "키워": 5962,
      "##ry": 5963,
      "메뉴": 5964,
      "##em": 5965,
      "중대": 5966,
      "따르": 5967,
      "헝가리": 5968,
      "##na": 5969,
      "##ine": 5970,
      "히트": 5971,
      "대외": 5972,
      "영장": 5973,
      "##횡": 5974,
      "어려워": 5975,
      "브리핑": 5976,
      "병사": 5977,
      "유발": 5978,
      "올라가": 5979,
      "##AS": 5980,
      "페이지": 5981,
      "##켈": 5982,
      "가면": 5983,
      "것이란": 5984,
      "헤어": 5985,
      "일찍": 5986,
      "##맹": 5987,
      "넘기": 5988,
      "팬들에게": 5989,
      "LA": 5990,
      "아카데미": 5991,
      "##플레이": 5992,
      "조사됐다": 5993,
      "달아": 5994,
      "##법상": 5995,
      "##훔": 5996,
      "##후보": 5997,
      "주기": 5998,
      "##구장": 5999,
      "했다고": 6000,
      "##기금": 6001,
      "재료": 6002,
      "##58": 6003,
      "라이온즈": 6004,
      "##뭉": 6005,
      "기업인": 6006,
      "빗": 6007,
      "의혹이": 6008,
      "##원장": 6009,
      "가서": 6010,
      "##뮤": 6011,
      "##닮": 6012,
      "돌아왔다": 6013,
      "난민": 6014,
      "##66": 6015,
      "출생": 6016,
      "언급했다": 6017,
      "##비용": 6018,
      "##펑": 6019,
      "##놓은": 6020,
      "##사진": 6021,
      "관람": 6022,
      "##1000": 6023,
      "휴가": 6024,
      "##밭": 6025,
      "등장하는": 6026,
      "##경기장에서": 6027,
      "고령": 6028,
      "도움": 6029,
      "추억": 6030,
      "서울중앙지법": 6031,
      "성분": 6032,
      "그렇지": 6033,
      "부담이": 6034,
      "이었다": 6035,
      "인공": 6036,
      "##사항": 6037,
      "창립": 6038,
      "아르헨티나": 6039,
      "##北": 6040,
      "틈": 6041,
      "한국전력": 6042,
      "현대자동차": 6043,
      "통증": 6044,
      "##EC": 6045,
      "AFC": 6046,
      "##우드": 6047,
      "KEB": 6048,
      "방해": 6049,
      "캡처": 6050,
      "저항": 6051,
      "동시": 6052,
      "줬다": 6053,
      "##여자": 6054,
      "강연": 6055,
      "##AM": 6056,
      "아이폰": 6057,
      "학습": 6058,
      "이어지는": 6059,
      "브리": 6060,
      "##피아": 6061,
      "환호": 6062,
      "재판에": 6063,
      "열애": 6064,
      "적극적": 6065,
      "즉시": 6066,
      "선발로": 6067,
      "기조": 6068,
      "배제": 6069,
      "다이노스": 6070,
      "변동": 6071,
      "a": 6072,
      "##해요": 6073,
      "오해": 6074,
      "##센트": 6075,
      "차지하는": 6076,
      "기획재정부": 6077,
      "드러나": 6078,
      "여론조사": 6079,
      "열리": 6080,
      "어렵": 6081,
      "가능성도": 6082,
      "##ell": 6083,
      "##댄": 6084,
      "슈틸리케": 6085,
      "태어나": 6086,
      "시선": 6087,
      "모자": 6088,
      "##져야": 6089,
      "스페셜": 6090,
      "성립": 6091,
      "홀로": 6092,
      "수상했다": 6093,
      "##센터에서": 6094,
      "판단했다": 6095,
      "청문회": 6096,
      "VIP": 6097,
      "떠났다": 6098,
      "증언": 6099,
      "말하는": 6100,
      "##듬": 6101,
      "부근": 6102,
      "##AT": 6103,
      "##●": 6104,
      "스탠": 6105,
      "삼성생명": 6106,
      "##ill": 6107,
      "유나이티드": 6108,
      "##MC": 6109,
      "이명박": 6110,
      "##스럽다": 6111,
      "Al": 6112,
      "개성": 6113,
      "있었으": 6114,
      "자율": 6115,
      "조심": 6116,
      "##잠": 6117,
      "그곳": 6118,
      "대량": 6119,
      "##41": 6120,
      "##vi": 6121,
      "무산": 6122,
      "##버린": 6123,
      "##용품": 6124,
      "##IN": 6125,
      "시나리오": 6126,
      "##이었고": 6127,
      "보여준다": 6128,
      "순수": 6129,
      "생겼다": 6130,
      "주간": 6131,
      "살리": 6132,
      "착용": 6133,
      "예능프로그램": 6134,
      "배상": 6135,
      "##아시안컵": 6136,
      "계좌": 6137,
      "부실": 6138,
      "지었다": 6139,
      "##넬": 6140,
      "줄어든": 6141,
      "시작됐다": 6142,
      "US": 6143,
      "늘고": 6144,
      "재벌": 6145,
      "신곡": 6146,
      "방송에서": 6147,
      "부상으로": 6148,
      "##돋": 6149,
      "이집트": 6150,
      "압력": 6151,
      "믿고": 6152,
      "추경": 6153,
      "##책임": 6154,
      "불어": 6155,
      "랩": 6156,
      "걸리": 6157,
      "공격수": 6158,
      "82": 6159,
      "대처": 6160,
      "##썼": 6161,
      "##췄": 6162,
      "공작": 6163,
      "##협약": 6164,
      "국제사회": 6165,
      "##조치": 6166,
      "com": 6167,
      "관찰": 6168,
      "##븐": 6169,
      "##est": 6170,
      "##대교": 6171,
      "어제": 6172,
      "협약": 6173,
      "논리": 6174,
      "##톨": 6175,
      "수수료": 6176,
      "개막전": 6177,
      "경매": 6178,
      "##스틴": 6179,
      "한국어": 6180,
      "건립": 6181,
      "소문": 6182,
      "##체제": 6183,
      "실책": 6184,
      "##청장": 6185,
      "곳곳에": 6186,
      "##스톤": 6187,
      "동일한": 6188,
      "가사": 6189,
      "##하였는데": 6190,
      "선두타자": 6191,
      "##62": 6192,
      "시작해": 6193,
      "점수를": 6194,
      "기원": 6195,
      "공정위": 6196,
      "##멋": 6197,
      "마산": 6198,
      "조별리그": 6199,
      "유학": 6200,
      "챔피언십": 6201,
      "##었습니다": 6202,
      "정규리그": 6203,
      "인류": 6204,
      "이라크": 6205,
      "##74": 6206,
      "이대호": 6207,
      "##一": 6208,
      "대법관": 6209,
      "현대캐피탈": 6210,
      "##하라는": 6211,
      "81": 6212,
      "관계자들": 6213,
      "##머스": 6214,
      "급증": 6215,
      "##현대": 6216,
      "남겨": 6217,
      "벌인": 6218,
      "투명": 6219,
      "아일랜드": 6220,
      "충북": 6221,
      "##CO": 6222,
      "폭탄": 6223,
      "고속": 6224,
      "엑스": 6225,
      "핀란드": 6226,
      "##뻔": 6227,
      "기온": 6228,
      "##모델": 6229,
      "훼손": 6230,
      "광화문": 6231,
      "##아시안게임": 6232,
      "지위": 6233,
      "입원": 6234,
      "##굿": 6235,
      "##여개": 6236,
      "전무": 6237,
      "##혐": 6238,
      "나오지": 6239,
      "##해지고": 6240,
      "실천": 6241,
      "언니": 6242,
      "실종": 6243,
      "최신": 6244,
      "서식": 6245,
      "거치": 6246,
      "부채": 6247,
      "양자": 6248,
      "좋았다": 6249,
      "##라이브": 6250,
      "동작": 6251,
      "감독님": 6252,
      "##닷컴": 6253,
      "##클레": 6254,
      "그랬": 6255,
      "##머리": 6256,
      "경향": 6257,
      "##q": 6258,
      "포지션": 6259,
      "안철수": 6260,
      "김선": 6261,
      "##라운드에서": 6262,
      "대로": 6263,
      "##몸": 6264,
      "커지고": 6265,
      "##버그": 6266,
      "전술": 6267,
      "##꼴": 6268,
      "베를린": 6269,
      "##정치": 6270,
      "임상": 6271,
      "토대": 6272,
      "집계됐다": 6273,
      "외모": 6274,
      "세부": 6275,
      "선생님": 6276,
      "##괴": 6277,
      "진행하고": 6278,
      "벌였다": 6279,
      "자문": 6280,
      "1984": 6281,
      "출간": 6282,
      "대표적": 6283,
      "케이블": 6284,
      "극본": 6285,
      "모르는": 6286,
      "편입": 6287,
      "회동": 6288,
      "업체들": 6289,
      "압수수색": 6290,
      "아티스트": 6291,
      "##▷": 6292,
      "거친": 6293,
      "180": 6294,
      "MY": 6295,
      "##나가는": 6296,
      "최정": 6297,
      "동료들": 6298,
      "##약품": 6299,
      "뮤직비디오": 6300,
      "역사상": 6301,
      "운영하고": 6302,
      "시진핑": 6303,
      "롯데그룹": 6304,
      "권고": 6305,
      "유일하게": 6306,
      "연관": 6307,
      "개시": 6308,
      "요청했다": 6309,
      "북측": 6310,
      "##세이브": 6311,
      "철수": 6312,
      "##테이션": 6313,
      "활용한": 6314,
      "창조": 6315,
      "국왕": 6316,
      "와서": 6317,
      "에릭": 6318,
      "요구하는": 6319,
      "잇는": 6320,
      "누구나": 6321,
      "적지": 6322,
      "##61": 6323,
      "##道": 6324,
      "##高": 6325,
      "질병": 6326,
      "잠실구장에서": 6327,
      "격차": 6328,
      "##MA": 6329,
      "광역": 6330,
      "반란": 6331,
      "생성": 6332,
      "느낀": 6333,
      "크레": 6334,
      "컬러": 6335,
      "상당한": 6336,
      "##므": 6337,
      "그럼에": 6338,
      "오빠": 6339,
      "##십자": 6340,
      "##했어요": 6341,
      "노리": 6342,
      "달한다": 6343,
      "할리우드": 6344,
      "취재진": 6345,
      "시청률": 6346,
      "성장률": 6347,
      "##같": 6348,
      "##ive": 6349,
      "생각하는": 6350,
      "국토교통부": 6351,
      "어벤져스": 6352,
      "캐스팅": 6353,
      "주목받": 6354,
      "공공기관": 6355,
      "입지": 6356,
      "유행": 6357,
      "1950": 6358,
      "즉각": 6359,
      "포르투갈": 6360,
      "크로스": 6361,
      "파업": 6362,
      "##낙": 6363,
      "그러자": 6364,
      "##ES": 6365,
      "de": 6366,
      "시작한다": 6367,
      "방위": 6368,
      "##최": 6369,
      "성추행": 6370,
      "반성": 6371,
      "장난": 6372,
      "분명히": 6373,
      "훌륭": 6374,
      "이것이": 6375,
      "건국": 6376,
      "1945": 6377,
      "##갔고": 6378,
      "다카": 6379,
      "이용자": 6380,
      "막판": 6381,
      "작동": 6382,
      "밀려": 6383,
      "게스트": 6384,
      "누리": 6385,
      "최악": 6386,
      "조항": 6387,
      "작품으로": 6388,
      "협업": 6389,
      "함수": 6390,
      "행성": 6391,
      "빌려": 6392,
      "누군가": 6393,
      "##테르": 6394,
      "끝내기": 6395,
      "편안": 6396,
      "부족한": 6397,
      "입사": 6398,
      "##南": 6399,
      "기상청": 6400,
      "불가피": 6401,
      "이어질": 6402,
      "미치는": 6403,
      "합작": 6404,
      "안산": 6405,
      "##DS": 6406,
      "##놈": 6407,
      "##킥": 6408,
      "마사": 6409,
      "##미술관": 6410,
      "사후": 6411,
      "##art": 6412,
      "시범": 6413,
      "강요": 6414,
      "강세": 6415,
      "##획": 6416,
      "##ta": 6417,
      "몰래": 6418,
      "해제": 6419,
      "이겨": 6420,
      "##골프": 6421,
      "화웨이": 6422,
      "추측": 6423,
      "##연전": 6424,
      "##기념": 6425,
      "비중이": 6426,
      "실망": 6427,
      "새정치민주연합": 6428,
      "이루어진": 6429,
      "아마존": 6430,
      "보컬": 6431,
      "발탁": 6432,
      "무관": 6433,
      "스틸": 6434,
      "사용한다": 6435,
      "실패했다": 6436,
      "출루": 6437,
      "미션": 6438,
      "##함과": 6439,
      "이끌고": 6440,
      "제압": 6441,
      "파티": 6442,
      "독특한": 6443,
      "삭제": 6444,
      "중부": 6445,
      "불렀다": 6446,
      "##랐": 6447,
      "배당": 6448,
      "##『": 6449,
      "##분께": 6450,
      "##사령부": 6451,
      "##Q": 6452,
      "불린다": 6453,
      "##校": 6454,
      "백화점": 6455,
      "몽골": 6456,
      "거짓말": 6457,
      "디젤": 6458,
      "라인업": 6459,
      "나쁜": 6460,
      "자율주행": 6461,
      "양측": 6462,
      "집으로": 6463,
      "1982": 6464,
      "##ti": 6465,
      "##DC": 6466,
      "##73": 6467,
      "날아": 6468,
      "몰려": 6469,
      "놀이": 6470,
      "##께서": 6471,
      "대통령에게": 6472,
      "##天": 6473,
      "불구속": 6474,
      "수비수": 6475,
      "품목": 6476,
      "##뤄": 6477,
      "일본군": 6478,
      "따뜻한": 6479,
      "피고인": 6480,
      "##짜": 6481,
      "봉사": 6482,
      "##AN": 6483,
      "단속": 6484,
      "광장": 6485,
      "기지": 6486,
      "수익률": 6487,
      "끌": 6488,
      "편의점": 6489,
      "충전": 6490,
      "즉위": 6491,
      "화이트": 6492,
      "좌우": 6493,
      "탈당": 6494,
      "담배": 6495,
      "유명하다": 6496,
      "본래": 6497,
      "보여줬다": 6498,
      "넓은": 6499,
      "외신": 6500,
      "페스티벌": 6501,
      "무렵": 6502,
      "베이스": 6503,
      "VR": 6504,
      "집중력": 6505,
      "본회의": 6506,
      "선보인다": 6507,
      "여객": 6508,
      "취재": 6509,
      "현안": 6510,
      "설립된": 6511,
      "삼성화재": 6512,
      "하원": 6513,
      "정무": 6514,
      "구성되어": 6515,
      "##민족": 6516,
      "포스터": 6517,
      "톰": 6518,
      "##섞": 6519,
      "##팽": 6520,
      "##城": 6521,
      "영등포": 6522,
      "방송된다": 6523,
      "말하며": 6524,
      "연료": 6525,
      "청춘": 6526,
      "정황": 6527,
      "##봤": 6528,
      "JTBC": 6529,
      "화장실": 6530,
      "확률": 6531,
      "위치해": 6532,
      "않았던": 6533,
      "##펴": 6534,
      "없었던": 6535,
      "##法": 6536,
      "##티아": 6537,
      "문화재": 6538,
      "##ho": 6539,
      "없지만": 6540,
      "기자들과": 6541,
      "##끄러": 6542,
      "있음을": 6543,
      "##깔": 6544,
      "콘셉트": 6545,
      "무한도전": 6546,
      "전용면적": 6547,
      "##언더파": 6548,
      "핫": 6549,
      "대타": 6550,
      "##에너지": 6551,
      "종종": 6552,
      "생일": 6553,
      "##모리": 6554,
      "##TS": 6555,
      "입장에서": 6556,
      "##투자증권": 6557,
      "##ist": 6558,
      "별명": 6559,
      "비록": 6560,
      "소집": 6561,
      "##칩": 6562,
      "흔히": 6563,
      "병력": 6564,
      "궁금": 6565,
      "밝혔": 6566,
      "CNN": 6567,
      "몫": 6568,
      "한층": 6569,
      "##펄": 6570,
      "정수": 6571,
      "적합": 6572,
      "부모님": 6573,
      "사업자": 6574,
      "싸우": 6575,
      "문구": 6576,
      "지켰다": 6577,
      "납치": 6578,
      "밖": 6579,
      "영향으로": 6580,
      "선제": 6581,
      "##플랜": 6582,
      "출신으로": 6583,
      "기후": 6584,
      "마운드에": 6585,
      "크라": 6586,
      "국적": 6587,
      "##하느냐": 6588,
      "아예": 6589,
      "영웅": 6590,
      "BMW": 6591,
      "브라운": 6592,
      "위안부": 6593,
      "무상": 6594,
      "기각": 6595,
      "소개했다": 6596,
      "##유럽": 6597,
      "디자이너": 6598,
      "스트레스": 6599,
      "취급": 6600,
      "변수": 6601,
      "긍정적": 6602,
      "구체적으로": 6603,
      "경상남도": 6604,
      "뉴질랜드": 6605,
      "재건축": 6606,
      "##명에게": 6607,
      "믿음": 6608,
      "여권": 6609,
      "##랍": 6610,
      "비전": 6611,
      "인원": 6612,
      "면적": 6613,
      "체결했다": 6614,
      "제외하고": 6615,
      "범인": 6616,
      "##땅": 6617,
      "##년만에": 6618,
      "동참": 6619,
      "사이버": 6620,
      "표면": 6621,
      "비교해": 6622,
      "없애": 6623,
      "학문": 6624,
      "CGV": 6625,
      "##콧": 6626,
      "정확히": 6627,
      "유재석": 6628,
      "계승": 6629,
      "만든다": 6630,
      "연세대": 6631,
      "곁": 6632,
      "##보며": 6633,
      "바뀌었다": 6634,
      "달성했다": 6635,
      "##넨": 6636,
      "컨디션": 6637,
      "소셜미디어": 6638,
      "지자체": 6639,
      "창단": 6640,
      "벌어지는": 6641,
      "김희": 6642,
      "항목": 6643,
      "다음날": 6644,
      "분포": 6645,
      "평택": 6646,
      "##ph": 6647,
      "##팝": 6648,
      "대안": 6649,
      "##음에": 6650,
      "##쓸": 6651,
      "조선시대": 6652,
      "집합": 6653,
      "면담": 6654,
      "취약": 6655,
      "조명": 6656,
      "##스럽게": 6657,
      "국무위원장": 6658,
      "토트넘": 6659,
      "##햄": 6660,
      "천연": 6661,
      "생각하고": 6662,
      "##탐": 6663,
      "달린": 6664,
      "##앵": 6665,
      "도박": 6666,
      "##펙": 6667,
      "받아들여": 6668,
      "사회주의": 6669,
      "있겠": 6670,
      "일반적인": 6671,
      "근대": 6672,
      "##혁신": 6673,
      "클린턴": 6674,
      "선보인": 6675,
      "최소화": 6676,
      "##스토어": 6677,
      "호평": 6678,
      "이어지고": 6679,
      "##정상회담": 6680,
      "오랫동안": 6681,
      "##ma": 6682,
      "##네스": 6683,
      "존중": 6684,
      "정원": 6685,
      "드림": 6686,
      "##심사": 6687,
      "양산": 6688,
      "경비": 6689,
      "##ers": 6690,
      "퍼포먼스": 6691,
      "꼽힌다": 6692,
      "유연": 6693,
      "신형": 6694,
      "줄여": 6695,
      "아니면": 6696,
      "발생하는": 6697,
      "이뤄졌다": 6698,
      "자택": 6699,
      "직장인": 6700,
      "엄격": 6701,
      "펼쳐진": 6702,
      "##韓": 6703,
      "##릇": 6704,
      "사립": 6705,
      "숨진": 6706,
      "재배": 6707,
      "1983": 6708,
      "##되도록": 6709,
      "표명": 6710,
      "흡수": 6711,
      "상금": 6712,
      "한국시리즈": 6713,
      "멀리": 6714,
      "긍정적인": 6715,
      "던진": 6716,
      "못했": 6717,
      "##혔": 6718,
      "시청": 6719,
      "박스오피스": 6720,
      "##갓": 6721,
      "식민지": 6722,
      "코트": 6723,
      "의하면": 6724,
      "일요일": 6725,
      "##ity": 6726,
      "곳으로": 6727,
      "방법으로": 6728,
      "민주주의": 6729,
      "##노조": 6730,
      "김혜": 6731,
      "아니고": 6732,
      "명품": 6733,
      "##툼": 6734,
      "공조": 6735,
      "##he": 6736,
      "다음달": 6737,
      "##보라": 6738,
      "##점슛": 6739,
      "사임": 6740,
      "텍사스": 6741,
      "##클래스": 6742,
      "또다시": 6743,
      "환경부": 6744,
      "##푸드": 6745,
      "해임": 6746,
      "##섹": 6747,
      "맞춘": 6748,
      "트랙": 6749,
      "거대한": 6750,
      "사용되는": 6751,
      "##겸": 6752,
      "과감": 6753,
      "##노스": 6754,
      "복원": 6755,
      "##치료": 6756,
      "꺼내": 6757,
      "##국제영화제": 6758,
      "국가안보": 6759,
      "배경으로": 6760,
      "전망된다": 6761,
      "미친": 6762,
      "꼽았다": 6763,
      "붙여": 6764,
      "개최된": 6765,
      "Ma": 6766,
      "##셜": 6767,
      "공백": 6768,
      "##플라": 6769,
      "걸려": 6770,
      "관료": 6771,
      "귀족": 6772,
      "포토": 6773,
      "퇴직": 6774,
      "##MB": 6775,
      "##년째": 6776,
      "가입자": 6777,
      "야권": 6778,
      "OK": 6779,
      "자식": 6780,
      "브렉시트": 6781,
      "포토타임": 6782,
      "##ak": 6783,
      "##앞": 6784,
      "##스틱": 6785,
      "##Z": 6786,
      "##금액": 6787,
      "몰리": 6788,
      "보조": 6789,
      "선정됐다": 6790,
      "구성원": 6791,
      "둘러싸": 6792,
      "##생산": 6793,
      "위즈": 6794,
      "조달": 6795,
      "쪽으로": 6796,
      "##잭": 6797,
      "하계": 6798,
      "완공": 6799,
      "##없": 6800,
      "발표된": 6801,
      "바른정당": 6802,
      "##텀": 6803,
      "메모리": 6804,
      "지출": 6805,
      "##81": 6806,
      "재능": 6807,
      "MVP": 6808,
      "맞게": 6809,
      "어떠한": 6810,
      "국무부": 6811,
      "패키지": 6812,
      "흐르": 6813,
      "##시리즈": 6814,
      "확인했다": 6815,
      "##뇨": 6816,
      "CCTV": 6817,
      "벨기에": 6818,
      "기준금리": 6819,
      "##처분": 6820,
      "##회담": 6821,
      "##뉘": 6822,
      "삼성물산": 6823,
      "국토부": 6824,
      "도달": 6825,
      "궤도": 6826,
      "측면에서": 6827,
      "둔화": 6828,
      "##졌던": 6829,
      "다르게": 6830,
      "승용차": 6831,
      "조현": 6832,
      "유입": 6833,
      "##학부": 6834,
      "##엑": 6835,
      "에피소드": 6836,
      "폼페이오": 6837,
      "등장했다": 6838,
      "시계": 6839,
      "용의자": 6840,
      "##영화제": 6841,
      "##IS": 6842,
      "인터": 6843,
      "##박쥐": 6844,
      "##상황": 6845,
      "철회": 6846,
      "##판매": 6847,
      "노후": 6848,
      "계정": 6849,
      "블룸버그": 6850,
      "##사이드": 6851,
      "주장하는": 6852,
      "##커스": 6853,
      "오스트레일리아": 6854,
      "작곡가": 6855,
      "학술": 6856,
      "설비": 6857,
      "측근": 6858,
      "배달": 6859,
      "##긋": 6860,
      "주류": 6861,
      "##데스": 6862,
      "##보드": 6863,
      "합쳐": 6864,
      "견해": 6865,
      "##겠느냐": 6866,
      "이병헌": 6867,
      "##연합회": 6868,
      "설치된": 6869,
      "##였으며": 6870,
      "이겼다": 6871,
      "양상": 6872,
      "가짜": 6873,
      "받았고": 6874,
      "던져": 6875,
      "입었다": 6876,
      "마스터": 6877,
      "하위": 6878,
      "벌이고": 6879,
      "누르": 6880,
      "횡령": 6881,
      "있으니": 6882,
      "예매": 6883,
      "##웨어": 6884,
      "공주": 6885,
      "서브": 6886,
      "##되었던": 6887,
      "리얼": 6888,
      "##셉": 6889,
      "마포구": 6890,
      "심지어": 6891,
      "밝혀졌다": 6892,
      "높았다": 6893,
      "느낄": 6894,
      "문건": 6895,
      "면접": 6896,
      "순서": 6897,
      "일원": 6898,
      "뒤늦게": 6899,
      "현대모비스": 6900,
      "##팡": 6901,
      "마드리드": 6902,
      "납품": 6903,
      "갖춰": 6904,
      "##ly": 6905,
      "편리": 6906,
      "아키": 6907,
      "근육": 6908,
      "공판": 6909,
      "안정적인": 6910,
      "사용된다": 6911,
      "##쿠르": 6912,
      "접전": 6913,
      "해당한다": 6914,
      "##오픈": 6915,
      "재미있": 6916,
      "것입니다": 6917,
      "준우승": 6918,
      "구원": 6919,
      "전통적": 6920,
      "##uc": 6921,
      "법칙": 6922,
      "여배우": 6923,
      "손상": 6924,
      "유죄": 6925,
      "잘못된": 6926,
      "손해배상": 6927,
      "##개월간": 6928,
      "양식": 6929,
      "배정": 6930,
      "출동": 6931,
      "기대한다": 6932,
      "준공": 6933,
      "수상자": 6934,
      "인용해": 6935,
      "보건복지부": 6936,
      "##땐": 6937,
      "##렐": 6938,
      "로버트": 6939,
      "학부모": 6940,
      "기자회견에서": 6941,
      "엔트리": 6942,
      "##시쯤": 6943,
      "##싼": 6944,
      "프로듀서": 6945,
      "##땀": 6946,
      "매니저": 6947,
      "논쟁": 6948,
      "공식적으로": 6949,
      "무조건": 6950,
      "핵무기": 6951,
      "박병호": 6952,
      "입찰": 6953,
      "##맥스": 6954,
      "##up": 6955,
      "조금씩": 6956,
      "왕조": 6957,
      "생애": 6958,
      "배려": 6959,
      "정밀": 6960,
      "##TI": 6961,
      "회전": 6962,
      "##갱": 6963,
      "nb": 6964,
      "던졌다": 6965,
      "밖으로": 6966,
      "크고": 6967,
      "명성": 6968,
      "합의했다": 6969,
      "않을까": 6970,
      "사망했다": 6971,
      "선수권": 6972,
      "미칠": 6973,
      "잭슨": 6974,
      "출근": 6975,
      "##콩": 6976,
      "라면서": 6977,
      "리스크": 6978,
      "마블": 6979,
      "잇따라": 6980,
      "자연스럽게": 6981,
      "동네": 6982,
      "인사들": 6983,
      "1981": 6984,
      "석탄": 6985,
      "가상화폐": 6986,
      "아나운서": 6987,
      "해킹": 6988,
      "현직": 6989,
      "단축": 6990,
      "서버": 6991,
      "대우조선해양": 6992,
      "##곰": 6993,
      "경유": 6994,
      "FTA": 6995,
      "타이틀곡": 6996,
      "중심지": 6997,
      "1973": 6998,
      "당사자": 6999,
      "대항": 7000,
      "가담": 7001,
      "##제약": 7002,
      "중순": 7003,
      "우정": 7004,
      "전라남도": 7005,
      "그럴": 7006,
      "엑소": 7007,
      "발목": 7008,
      "사연": 7009,
      "게재": 7010,
      "일으킨": 7011,
      "##新": 7012,
      "강렬한": 7013,
      "최우수": 7014,
      "당내": 7015,
      "드론": 7016,
      "사라지": 7017,
      "아프": 7018,
      "합리적": 7019,
      "##렸지만": 7020,
      "넘겼다": 7021,
      "주위": 7022,
      "시작하였다": 7023,
      "##軍": 7024,
      "역전승": 7025,
      "영양": 7026,
      "##이므로": 7027,
      "정규직": 7028,
      "물러나": 7029,
      "보여준": 7030,
      "합성": 7031,
      "##故": 7032,
      "공산당": 7033,
      "##축제": 7034,
      "질주": 7035,
      "부임": 7036,
      "##들었다": 7037,
      "선언했다": 7038,
      "시청자": 7039,
      "www": 7040,
      "##풋": 7041,
      "돼지": 7042,
      "없게": 7043,
      "##혁명": 7044,
      "털어놨다": 7045,
      "##DA": 7046,
      "갖추고": 7047,
      "##ex": 7048,
      "##ate": 7049,
      "##공화국": 7050,
      "항소심": 7051,
      "비공개": 7052,
      "묻자": 7053,
      "초점": 7054,
      "##효율": 7055,
      "매수": 7056,
      "운항": 7057,
      "겪고": 7058,
      "##ub": 7059,
      "키움": 7060,
      "살려": 7061,
      "차세대": 7062,
      "##갈수록": 7063,
      "할아버지": 7064,
      "선발투수": 7065,
      "##03": 7066,
      "지역구": 7067,
      "여사": 7068,
      "냉장고": 7069,
      "리더십": 7070,
      "##법원": 7071,
      "맛있": 7072,
      "벌어졌다": 7073,
      "##비율": 7074,
      "고양시": 7075,
      "처음에": 7076,
      "용기": 7077,
      "만났": 7078,
      "##ment": 7079,
      "쿠바": 7080,
      "해방": 7081,
      "요건": 7082,
      "##사람": 7083,
      "##방안": 7084,
      "사망자": 7085,
      "##뱀": 7086,
      "##해준다": 7087,
      "갖추": 7088,
      "##경쟁": 7089,
      "##채널": 7090,
      "바뀐": 7091,
      "시카고": 7092,
      "##미디어": 7093,
      "국산": 7094,
      "##ang": 7095,
      "일방적": 7096,
      "노르웨이": 7097,
      "트렌드": 7098,
      "신제품": 7099,
      "##중공업": 7100,
      "비정규직": 7101,
      "GDP": 7102,
      "우수한": 7103,
      "##아프리카": 7104,
      "급여": 7105,
      "광복": 7106,
      "##블리": 7107,
      "탄탄": 7108,
      "창작": 7109,
      "브루": 7110,
      "##뱅": 7111,
      "##스타디움에서": 7112,
      "바른미래당": 7113,
      "어려울": 7114,
      "##홀딩스": 7115,
      "서초구": 7116,
      "피아노": 7117,
      "##들로부터": 7118,
      "흔들리": 7119,
      "채무": 7120,
      "격려": 7121,
      "##되게": 7122,
      "##CS": 7123,
      "당분간": 7124,
      "인용": 7125,
      "그라운드": 7126,
      "육상": 7127,
      "모으고": 7128,
      "위대한": 7129,
      "견제": 7130,
      "##네요": 7131,
      "침입": 7132,
      "##되었는데": 7133,
      "공익": 7134,
      "##싸움": 7135,
      "모르겠다": 7136,
      "정상화": 7137,
      "돕는": 7138,
      "더민주": 7139,
      "남긴": 7140,
      "##야말로": 7141,
      "외곽": 7142,
      "패널": 7143,
      "들어온": 7144,
      "청탁": 7145,
      "단행": 7146,
      "미드필더": 7147,
      "집행유예": 7148,
      "##찔": 7149,
      "성매매": 7150,
      "스카이": 7151,
      "고객들": 7152,
      "##io": 7153,
      "##公": 7154,
      "테이블": 7155,
      "##버렸다": 7156,
      "경위": 7157,
      "침체": 7158,
      "##붕": 7159,
      "병역": 7160,
      "숙소": 7161,
      "##벅": 7162,
      "춘천": 7163,
      "동계": 7164,
      "반격": 7165,
      "효율적": 7166,
      "여왕": 7167,
      "##ON": 7168,
      "두번째": 7169,
      "##事": 7170,
      "##럿": 7171,
      "교통사고": 7172,
      "클라우드": 7173,
      "사람들에게": 7174,
      "칼럼": 7175,
      "##해줄": 7176,
      "한글": 7177,
      "##공동체": 7178,
      "##캠프": 7179,
      "##ㆍ": 7180,
      "##퀸": 7181,
      "기자간담회": 7182,
      "높게": 7183,
      "이마트": 7184,
      "일각에서": 7185,
      "##PC": 7186,
      "분열": 7187,
      "##파운드": 7188,
      "충분": 7189,
      "과장": 7190,
      "##캡": 7191,
      "최고경영자": 7192,
      "확신": 7193,
      "아이템": 7194,
      "##엠": 7195,
      "높여": 7196,
      "벤치": 7197,
      "알바": 7198,
      "마리아": 7199,
      "##프로그램": 7200,
      "##예요": 7201,
      "레스토랑": 7202,
      "맞춤형": 7203,
      "철거": 7204,
      "개장": 7205,
      "주어진": 7206,
      "상당수": 7207,
      "성공적으로": 7208,
      "동양": 7209,
      "흔적": 7210,
      "이례적": 7211,
      "데이비드": 7212,
      "위상": 7213,
      "연구개발": 7214,
      "공중": 7215,
      "유치원": 7216,
      "##템": 7217,
      "로맨스": 7218,
      "헨리": 7219,
      "키스": 7220,
      "탈북": 7221,
      "세계적으로": 7222,
      "트와이스": 7223,
      "IMF": 7224,
      "끌려": 7225,
      "##필름": 7226,
      "의정부": 7227,
      "원정경기": 7228,
      "복무": 7229,
      "증권사": 7230,
      "풍부한": 7231,
      "쓰레기": 7232,
      "CD": 7233,
      "##ber": 7234,
      "##방향": 7235,
      "열릴": 7236,
      "1975": 7237,
      "확실히": 7238,
      "김윤": 7239,
      "벌써": 7240,
      "##하더라": 7241,
      "갈아": 7242,
      "1979": 7243,
      "##묵": 7244,
      "##氏": 7245,
      "이루어져": 7246,
      "##건강": 7247,
      "해운대": 7248,
      "좌전": 7249,
      "공시했다": 7250,
      "1972": 7251,
      "추모": 7252,
      "불과하다": 7253,
      "솔루션": 7254,
      "##맵": 7255,
      "##ight": 7256,
      "토요일": 7257,
      "유럽연합": 7258,
      "로켓": 7259,
      "##기능": 7260,
      "불참": 7261,
      "##흙": 7262,
      "##랫": 7263,
      "성폭력": 7264,
      "풀이된다": 7265,
      "보험사": 7266,
      "끝났다": 7267,
      "천황": 7268,
      "인접": 7269,
      "랭킹": 7270,
      "사운드": 7271,
      "갖는다": 7272,
      "폴리": 7273,
      "들려": 7274,
      "##겔": 7275,
      "팽팽": 7276,
      "끊임없": 7277,
      "전투기": 7278,
      "##AD": 7279,
      "##ud": 7280,
      "김현수": 7281,
      "##川": 7282,
      "상관없": 7283,
      "목사": 7284,
      "먼지": 7285,
      "모스크바": 7286,
      "판문점": 7287,
      "당연히": 7288,
      "중견수": 7289,
      "빅뱅": 7290,
      "색깔": 7291,
      "기기": 7292,
      "작사": 7293,
      "위축": 7294,
      "##았는데": 7295,
      "생물": 7296,
      "##폼": 7297,
      "류현진": 7298,
      "##담당": 7299,
      "헤드": 7300,
      "패턴": 7301,
      "갖게": 7302,
      "보면서": 7303,
      "녹색": 7304,
      "발견됐다": 7305,
      "중요성": 7306,
      "넣었다": 7307,
      "##쉐": 7308,
      "##슐": 7309,
      "크리스마스": 7310,
      "사우디": 7311,
      "청원": 7312,
      "풍경": 7313,
      "버디": 7314,
      "##스타즈": 7315,
      "##NC": 7316,
      "승차": 7317,
      "WSJ": 7318,
      "궁금증": 7319,
      "뜻한다": 7320,
      "상대방": 7321,
      "힘들다": 7322,
      "대법원장": 7323,
      "##눈": 7324,
      "목포": 7325,
      "입건": 7326,
      "아니지만": 7327,
      "복면가왕": 7328,
      "힙합": 7329,
      "전략적": 7330,
      "무력": 7331,
      "##매체": 7332,
      "창설": 7333,
      "어른": 7334,
      "이용하여": 7335,
      "##멍": 7336,
      "발견되": 7337,
      "##NE": 7338,
      "통일부": 7339,
      "커졌다": 7340,
      "치열": 7341,
      "##‧": 7342,
      "##손해보험": 7343,
      "워낙": 7344,
      "##IT": 7345,
      "꼬리": 7346,
      "현황": 7347,
      "뚜렷": 7348,
      "##겉": 7349,
      "연준": 7350,
      "##농구": 7351,
      "방북": 7352,
      "욕심": 7353,
      "원자력": 7354,
      "회원국": 7355,
      "MS": 7356,
      "어린이집": 7357,
      "1974": 7358,
      "##궤": 7359,
      "##海": 7360,
      "비서실장": 7361,
      "송파구": 7362,
      "현대중공업": 7363,
      "경찰관": 7364,
      "경제학": 7365,
      "충분한": 7366,
      "선생": 7367,
      "항공사": 7368,
      "##답게": 7369,
      "##모씨": 7370,
      "사라진": 7371,
      "비트코인": 7372,
      "##바퀴": 7373,
      "싶었": 7374,
      "##ip": 7375,
      "담겼다": 7376,
      "현대건설": 7377,
      "조합원": 7378,
      "상속": 7379,
      "##正": 7380,
      "##지방법원": 7381,
      "##쿨": 7382,
      "내외": 7383,
      "졸업하고": 7384,
      "##륨": 7385,
      "카르": 7386,
      "물류": 7387,
      "넘어서": 7388,
      "발급": 7389,
      "들어선": 7390,
      "##옵": 7391,
      "자카르타": 7392,
      "위안화": 7393,
      "##SI": 7394,
      "노벨": 7395,
      "##딴": 7396,
      "##EA": 7397,
      "이루어지": 7398,
      "축구대표팀": 7399,
      "예외": 7400,
      "하와이": 7401,
      "##벡": 7402,
      "뷰티": 7403,
      "##co": 7404,
      "낮추": 7405,
      "독점": 7406,
      "살아남": 7407,
      "사냥": 7408,
      "삼아": 7409,
      "야외": 7410,
      "Me": 7411,
      "마침내": 7412,
      "산업혁명": 7413,
      "##FM": 7414,
      "익숙": 7415,
      "##코프": 7416,
      "빨간": 7417,
      "##해주고": 7418,
      "##랙": 7419,
      "##굽": 7420,
      "##뤼": 7421,
      "스피드": 7422,
      "침묵": 7423,
      "급등": 7424,
      "이메일": 7425,
      "잠정": 7426,
      "CAR": 7427,
      "입력": 7428,
      "감사하다": 7429,
      "억제": 7430,
      "##베스트": 7431,
      "폭스": 7432,
      "##노동조합": 7433,
      "##∼20": 7434,
      "푸틴": 7435,
      "둘러": 7436,
      "DJ": 7437,
      "시사회": 7438,
      "##월드컵": 7439,
      "##ong": 7440,
      "##특위": 7441,
      "##HD": 7442,
      "나타냈다": 7443,
      "##박람회": 7444,
      "주차장": 7445,
      "Ro": 7446,
      "만들었": 7447,
      "##GB": 7448,
      "1978": 7449,
      "붙어": 7450,
      "우리카드": 7451,
      "이어가고": 7452,
      "없기": 7453,
      "우크라이나": 7454,
      "챌린지": 7455,
      "충청남도": 7456,
      "당부했다": 7457,
      "교과서": 7458,
      "##되었지만": 7459,
      "##득점으로": 7460,
      "발효": 7461,
      "##저우": 7462,
      "##첸": 7463,
      "첫날": 7464,
      "##쇼핑": 7465,
      "##⅓": 7466,
      "##CP": 7467,
      "보험료": 7468,
      "보였": 7469,
      "빠르": 7470,
      "있었기": 7471,
      "##밋": 7472,
      "닥터": 7473,
      "##무늬": 7474,
      "도약": 7475,
      "##핸드": 7476,
      "본명": 7477,
      "히로": 7478,
      "다저스": 7479,
      "주목된다": 7480,
      "##＇": 7481,
      "선제골": 7482,
      "스파이": 7483,
      "아이콘": 7484,
      "이르면": 7485,
      "플래": 7486,
      "##hi": 7487,
      "면모": 7488,
      "지불": 7489,
      "국무장관": 7490,
      "##졌으며": 7491,
      "이승엽": 7492,
      "재판장": 7493,
      "##홈쇼핑": 7494,
      "군사적": 7495,
      "##義": 7496,
      "내다봤다": 7497,
      "조만간": 7498,
      "있느냐": 7499,
      "접속": 7500,
      "유효": 7501,
      "Th": 7502,
      "촉진": 7503,
      "##썸": 7504,
      "##햇": 7505,
      "양현종": 7506,
      "코스피지수": 7507,
      "##어시스트": 7508,
      "학위": 7509,
      "포함됐다": 7510,
      "1971": 7511,
      "##오카": 7512,
      "오키나와": 7513,
      "##펌": 7514,
      "휴대폰": 7515,
      "##하이닉스": 7516,
      "무승부": 7517,
      "##포스": 7518,
      "끈다": 7519,
      "터널": 7520,
      "##였는데": 7521,
      "갈라": 7522,
      "##宗": 7523,
      "좌익수": 7524,
      "##TA": 7525,
      "의약품": 7526,
      "커지": 7527,
      "빅데이터": 7528,
      "크루즈": 7529,
      "##ff": 7530,
      "쇼핑몰": 7531,
      "정의당": 7532,
      "##뭇": 7533,
      "해커": 7534,
      "##엿": 7535,
      "가리키는": 7536,
      "챙기": 7537,
      "##슬라": 7538,
      "아랍": 7539,
      "진행되는": 7540,
      "##MI": 7541,
      "##맑": 7542,
      "스티븐": 7543,
      "쓰인다": 7544,
      "후손": 7545,
      "데이트": 7546,
      "열기": 7547,
      "마쓰": 7548,
      "사찰": 7549,
      "##큰": 7550,
      "절감": 7551,
      "##윙": 7552,
      "카타르": 7553,
      "늘어날": 7554,
      "##동맹": 7555,
      "운송": 7556,
      "##해줬다": 7557,
      "항구": 7558,
      "막내": 7559,
      "아마추어": 7560,
      "부작용": 7561,
      "여섯": 7562,
      "못했던": 7563,
      "##옷": 7564,
      "##ld": 7565,
      "금융감독원": 7566,
      "근본적": 7567,
      "허락": 7568,
      "호응": 7569,
      "##깐": 7570,
      "챙겨": 7571,
      "가맹점": 7572,
      "김대중": 7573,
      "하노이": 7574,
      "##봇": 7575,
      "##iv": 7576,
      "##숍": 7577,
      "우익수": 7578,
      "트레이드": 7579,
      "나눔": 7580,
      "법인세": 7581,
      "##오프": 7582,
      "재판부": 7583,
      "김일성": 7584,
      "##되거나": 7585,
      "##man": 7586,
      "어려웠": 7587,
      "고구려": 7588,
      "건강보험": 7589,
      "코믹": 7590,
      "Ar": 7591,
      "철도역": 7592,
      "긴장감": 7593,
      "숨겨": 7594,
      "##ran": 7595,
      "1969": 7596,
      "숙박": 7597,
      "발간": 7598,
      "좋을": 7599,
      "##뚜": 7600,
      "선보일": 7601,
      "금품": 7602,
      "박명수": 7603,
      "제휴": 7604,
      "상임위": 7605,
      "꾸며": 7606,
      "조율": 7607,
      "1940": 7608,
      "##벨트": 7609,
      "##붐": 7610,
      "코엑스": 7611,
      "대대적": 7612,
      "석방": 7613,
      "##地": 7614,
      "1968": 7615,
      "달렸다": 7616,
      "뜨겁": 7617,
      "##ect": 7618,
      "태양광": 7619,
      "면제": 7620,
      "1976": 7621,
      "##보살": 7622,
      "듣는": 7623,
      "UAE": 7624,
      "중화인민공화국": 7625,
      "분량": 7626,
      "스태프": 7627,
      "옵션": 7628,
      "예상치": 7629,
      "충실": 7630,
      "한국은행": 7631,
      "이재용": 7632,
      "1948": 7633,
      "게재했다": 7634,
      "플레이어": 7635,
      "슬라이더": 7636,
      "멈추": 7637,
      "흰색": 7638,
      "심사위원": 7639,
      "잠수함": 7640,
      "골밑": 7641,
      "최하위": 7642,
      "본질": 7643,
      "##per": 7644,
      "장거리": 7645,
      "권위": 7646,
      "터뜨렸다": 7647,
      "보좌관": 7648,
      "극대화": 7649,
      "##뮤직": 7650,
      "1963": 7651,
      "##넘": 7652,
      "마스크": 7653,
      "생산량": 7654,
      "kr": 7655,
      "박씨": 7656,
      "감탄": 7657,
      "올스타전": 7658,
      "##유플러스": 7659,
      "노예": 7660,
      "흑자": 7661,
      "BBC": 7662,
      "물론이고": 7663,
      "메달": 7664,
      "조선민주주의인민공화국": 7665,
      "##붓": 7666,
      "##잖": 7667,
      "1962": 7668,
      "##하셨": 7669,
      "1977": 7670,
      "선수들에게": 7671,
      "맹활약": 7672,
      "##컴퍼니": 7673,
      "홍준표": 7674,
      "냄새": 7675,
      "음식점": 7676,
      "##RE": 7677,
      "여성들": 7678,
      "##통합": 7679,
      "들었": 7680,
      "##놨": 7681,
      "뛰어나": 7682,
      "계급": 7683,
      "쉬운": 7684,
      "개그맨": 7685,
      "##☞": 7686,
      "##덧": 7687,
      "기대된다": 7688,
      "독립운동": 7689,
      "어릴": 7690,
      "##아름": 7691,
      "재난": 7692,
      "응용": 7693,
      "양쪽": 7694,
      "로스앤젤레스": 7695,
      "##깎": 7696,
      "##꽤": 7697,
      "##PI": 7698,
      "켈리": 7699,
      "소셜": 7700,
      "만찬": 7701,
      "느꼈다": 7702,
      "오디션": 7703,
      "오페라": 7704,
      "##our": 7705,
      "DNA": 7706,
      "창업자": 7707,
      "타자들": 7708,
      "##ack": 7709,
      "존경": 7710,
      "폴크스바겐": 7711,
      "##對": 7712,
      "혈액": 7713,
      "인천공항": 7714,
      "첫째": 7715,
      "존재감": 7716,
      "나눴다": 7717,
      "##長": 7718,
      "##콕": 7719,
      "걸었다": 7720,
      "검거": 7721,
      "1965": 7722,
      "##민주당": 7723,
      "꿈꾸": 7724,
      "늘려": 7725,
      "위탁": 7726,
      "1920": 7727,
      "리콜": 7728,
      "##⅔": 7729,
      "일어났다": 7730,
      "며칠": 7731,
      "싶지": 7732,
      "터뜨리": 7733,
      "깨끗": 7734,
      "김무성": 7735,
      "섹시": 7736,
      "집값": 7737,
      "##챔피언": 7738,
      "##기업은행": 7739,
      "##ant": 7740,
      "##긍": 7741,
      "보조금": 7742,
      "거짓": 7743,
      "지붕": 7744,
      "##딸": 7745,
      "##였으나": 7746,
      "##젖": 7747,
      "단백질": 7748,
      "뛰어넘": 7749,
      "자유롭게": 7750,
      "같았다": 7751,
      "##태평양": 7752,
      "달라진": 7753,
      "힘들었": 7754,
      "페이스": 7755,
      "##렘": 7756,
      "채권단": 7757,
      "라이언": 7758,
      "경기력": 7759,
      "##뒤": 7760,
      "##ast": 7761,
      "##콘서트": 7762,
      "애플리케이션": 7763,
      "##元": 7764,
      "우연히": 7765,
      "손가락": 7766,
      "##체육관": 7767,
      "충족": 7768,
      "상향": 7769,
      "##쿼": 7770,
      "##×": 7771,
      "선진국": 7772,
      "힐링": 7773,
      "검사장": 7774,
      "담장": 7775,
      "주고받": 7776,
      "##㎝": 7777,
      "##딕": 7778,
      "내놨다": 7779,
      "탔다": 7780,
      "기재부": 7781,
      "색상": 7782,
      "몸매": 7783,
      "##RO": 7784,
      "맞붙": 7785,
      "##지방경찰청": 7786,
      "##無": 7787,
      "감안하면": 7788,
      "시범경기": 7789,
      "##되던": 7790,
      "##RS": 7791,
      "음료": 7792,
      "올스타": 7793,
      "보여줄": 7794,
      "자리잡": 7795,
      "1967": 7796,
      "알았다": 7797,
      "인텔": 7798,
      "들어갈": 7799,
      "##랴": 7800,
      "유승민": 7801,
      "착공": 7802,
      "##iz": 7803,
      "##上": 7804,
      "가까워": 7805,
      "지나치게": 7806,
      "개성공단": 7807,
      "그래픽": 7808,
      "올렸": 7809,
      "##明": 7810,
      "##핏": 7811,
      "평범한": 7812,
      "데리고": 7813,
      "기뻐하": 7814,
      "추정되는": 7815,
      "탄력": 7816,
      "좋았": 7817,
      "사우디아라비아": 7818,
      "##끓": 7819,
      "오랜만에": 7820,
      "##겁니다": 7821,
      "찍었다": 7822,
      "정보통신": 7823,
      "당첨": 7824,
      "특혜": 7825,
      "##de": 7826,
      "##둬": 7827,
      "헌재": 7828,
      "면역": 7829,
      "대다수": 7830,
      "증가율": 7831,
      "##寺": 7832,
      "어울리": 7833,
      "##힘": 7834,
      "건축물": 7835,
      "가끔": 7836,
      "기자들": 7837,
      "##one": 7838,
      "##됐는데": 7839,
      "체크": 7840,
      "이정현": 7841,
      "불확실성": 7842,
      "##朴": 7843,
      "##웬": 7844,
      "웹툰": 7845,
      "금융당국": 7846,
      "##받았": 7847,
      "##흰": 7848,
      "##솜": 7849,
      "승무원": 7850,
      "쟁점": 7851,
      "스님": 7852,
      "##꿀": 7853,
      "플로리다": 7854,
      "##뚱": 7855,
      "오프라인": 7856,
      "어쩔": 7857,
      "백종원": 7858,
      "힘들어": 7859,
      "꼽히는": 7860,
      "##곽": 7861,
      "좌석": 7862,
      "헌법재판소": 7863,
      "무너지": 7864,
      "한국영화": 7865,
      "##샘": 7866,
      "기본적으로": 7867,
      "회수": 7868,
      "##ob": 7869,
      "드러낸": 7870,
      "노하우": 7871,
      "##age": 7872,
      "늘어났다": 7873,
      "음력": 7874,
      "것인가": 7875,
      "추첨": 7876,
      "##아파트": 7877,
      "충청": 7878,
      "무엇이": 7879,
      "금요일": 7880,
      "진압": 7881,
      "구멍": 7882,
      "농민": 7883,
      "왜곡": 7884,
      "##왔지만": 7885,
      "뒷받침": 7886,
      "베네수엘라": 7887,
      "포스트시즌": 7888,
      "질량": 7889,
      "타석에서": 7890,
      "스코어": 7891,
      "돌아갔다": 7892,
      "YG": 7893,
      "경영권": 7894,
      "##떨": 7895,
      "퇴장": 7896,
      "박정희": 7897,
      "##밸리": 7898,
      "##前": 7899,
      "트로피": 7900,
      "이동통신": 7901,
      "노력하겠다": 7902,
      "국회의장": 7903,
      "그렇다면": 7904,
      "##헐": 7905,
      "##자산운용": 7906,
      "조선일보": 7907,
      "완승": 7908,
      "쓰이는": 7909,
      "일제히": 7910,
      "민정수석": 7911,
      "주니어": 7912,
      "농촌": 7913,
      "Mar": 7914,
      "남다른": 7915,
      "콜롬비아": 7916,
      "잠실야구장": 7917,
      "프리미어리그": 7918,
      "##선수권대회": 7919,
      "잡았": 7920,
      "2022": 7921,
      "급락": 7922,
      "소녀시대": 7923,
      "만들어졌다": 7924,
      "생길": 7925,
      "어렵게": 7926,
      "##승째": 7927,
      "걸친": 7928,
      "##ain": 7929,
      "LPGA": 7930,
      "##볶": 7931,
      "지방선거": 7932,
      "피칭": 7933,
      "담았다": 7934,
      "이뤄질": 7935,
      "도와주": 7936,
      "##썩": 7937,
      "칠레": 7938,
      "Pro": 7939,
      "##앱": 7940,
      "침공": 7941,
      "컨트롤": 7942,
      "##女": 7943,
      "##政": 7944,
      "##옌": 7945,
      "##흠": 7946,
      "웨스트": 7947,
      "억울": 7948,
      "겨우": 7949,
      "KDB": 7950,
      "Com": 7951,
      "개척": 7952,
      "##–": 7953,
      "레드카펫": 7954,
      "문화체육관광부": 7955,
      "##칫": 7956,
      "연평균": 7957,
      "저지른": 7958,
      "##소프트": 7959,
      "##슴": 7960,
      "벌이는": 7961,
      "지냈": 7962,
      "##뻐": 7963,
      "##男": 7964,
      "##西": 7965,
      "##짚": 7966,
      "깔끔": 7967,
      "동대문": 7968,
      "부위원장": 7969,
      "1946": 7970,
      "비대위": 7971,
      "생태계": 7972,
      "##미사일": 7973,
      "1961": 7974,
      "산맥": 7975,
      "일시적": 7976,
      "##캠": 7977,
      "##反": 7978,
      "생중계": 7979,
      "소규모": 7980,
      "떠오르": 7981,
      "체코": 7982,
      "빌보드": 7983,
      "Con": 7984,
      "사흘": 7985,
      "##太": 7986,
      "##石": 7987,
      "챙겼다": 7988,
      "기성용": 7989,
      "섭취": 7990,
      "세계대전": 7991,
      "##成": 7992,
      "##늑": 7993,
      "##휠": 7994,
      "##첼": 7995,
      "##京": 7996,
      "##家": 7997,
      "##院": 7998,
      "##쌍": 7999,
      "##뷔": 8000,
      "##뜬": 8001,
      "##田": 8002,
      "##行": 8003,
      "##빨": 8004,
      "##툴": 8005,
      "##벳": 8006,
      "##뽀": 8007,
      "##쑤": 8008,
      "##使": 8009,
      "##光": 8010,
      "##陽": 8011,
      "##샵": 8012,
      "##못": 8013,
      "##府": 8014,
      "##生": 8015,
      "##뭘": 8016,
      "##神": 8017,
      "##셸": 8018,
      "##옐": 8019,
      "##퉁": 8020,
      "##돕": 8021,
      "##툰": 8022,
      "##野": 8023,
      "##봄": 8024,
      "##룽": 8025,
      "##㎏": 8026,
      "##궈": 8027,
      "##캄": 8028,
      "##맷": 8029,
      "##끝": 8030,
      "##親": 8031,
      "##곧": 8032,
      "##쥬": 8033,
      "##水": 8034,
      "##렵": 8035,
      "##뿔": 8036,
      "##小": 8037,
      "##껍": 8038,
      "##왈": 8039,
      "##쩍": 8040,
      "##엣": 8041,
      "##Δ": 8042,
      "##∙": 8043,
      "##民": 8044,
      "##武": 8045,
      "##숨": 8046,
      "##멀": 8047,
      "##씻": 8048,
      "##멈": 8049,
      "##홉": 8050,
      "##앗": 8051,
      "##主": 8052,
      "##줌": 8053,
      "##큼": 8054,
      "##뿜": 8055,
      "##섯": 8056,
      "##é": 8057,
      "##原": 8058,
      "##얽": 8059,
      "##핸": 8060,
      "##性": 8061,
      "##江": 8062,
      "##都": 8063,
      "##君": 8064,
      "##빗": 8065,
      "##世": 8066,
      "##島": 8067,
      "##롯": 8068,
      "##삐": 8069,
      "##써": 8070,
      "##썰": 8071,
      "##□": 8072,
      "##뱃": 8073,
      "##팜": 8074,
      "##門": 8075,
      "##높": 8076,
      "##等": 8077,
      "##왓": 8078,
      "##本": 8079,
      "##非": 8080,
      "##퀘": 8081,
      "##헛": 8082,
      "##쉴": 8083,
      "##밸": 8084,
      "##㎜": 8085,
      "##會": 8086,
      "##뜰": 8087,
      "##띤": 8088,
      "##仁": 8089,
      "##늄": 8090,
      "##司": 8091,
      "##찍": 8092,
      "##馬": 8093,
      "##짱": 8094,
      "##팟": 8095,
      "##經": 8096,
      "##德": 8097,
      "##즌": 8098,
      "##촬": 8099,
      "##꽁": 8100,
      "##덱": 8101,
      "##샹": 8102,
      "##갖": 8103,
      "##近": 8104,
      "##옴": 8105,
      "##쭉": 8106,
      "##헨": 8107,
      "##里": 8108,
      "##낱": 8109,
      "##뜩": 8110,
      "##官": 8111,
      "##탬": 8112,
      "##댐": 8113,
      "##郡": 8114,
      "##괌": 8115,
      "##心": 8116,
      "##끔": 8117,
      "##씬": 8118,
      "##★": 8119,
      "##웃": 8120,
      "##全": 8121,
      "##쪼": 8122,
      "##習": 8123,
      "##홈": 8124,
      "##않": 8125,
      "##깜": 8126,
      "##냉": 8127,
      "##河": 8128,
      "##뭄": 8129,
      "##％": 8130,
      "##젝": 8131,
      "##릅": 8132,
      "##쿤": 8133,
      "##쑥": 8134,
      "##찢": 8135,
      "##싹": 8136,
      "##쥔": 8137,
      "##쯔": 8138,
      "##잘": 8139,
      "##꿈": 8140,
      "##껴": 8141,
      "##縣": 8142,
      "##部": 8143,
      "##또": 8144,
      "##和": 8145,
      "##慶": 8146,
      "##а": 8147,
      "##⋅": 8148,
      "##잣": 8149,
      "##晋": 8150,
      "##쿵": 8151,
      "##딱": 8152,
      "##相": 8153,
      "##밖": 8154,
      "##빅": 8155,
      "##興": 8156,
      "##빔": 8157,
      "##얄": 8158,
      "##뜻": 8159,
      "##셈": 8160,
      "##夫": 8161,
      "##펫": 8162,
      "##永": 8163,
      "##꽉": 8164,
      "##理": 8165,
      "##龍": 8166,
      "##뮬": 8167,
      "##깨": 8168,
      "##놔": 8169,
      "##콰": 8170,
      "##五": 8171,
      "##白": 8172,
      "##知": 8173,
      "##不": 8174,
      "##℃": 8175,
      "##숲": 8176,
      "##忠": 8177,
      "##漢": 8178,
      "##華": 8179,
      "##化": 8180,
      "##定": 8181,
      "##洞": 8182,
      "##톈": 8183,
      "##덜": 8184,
      "##젓": 8185,
      "##之": 8186,
      "##戰": 8187,
      "##둠": 8188,
      "##쓴": 8189,
      "##方": 8190,
      "##갯": 8191,
      "##朝": 8192,
      "##林": 8193,
      "##聖": 8194,
      "##똥": 8195,
      "##앰": 8196,
      "##有": 8197,
      "##걀": 8198,
      "##멧": 8199,
      "##챈": 8200,
      "##녹": 8201,
      "##쌀": 8202,
      "##同": 8203,
      "##通": 8204,
      "##딛": 8205,
      "##흑": 8206,
      "##倍": 8207,
      "##師": 8208,
      "##샐": 8209,
      "##캉": 8210,
      "##°": 8211,
      "##趙": 8212,
      "##所": 8213,
      "##社": 8214,
      "##팍": 8215,
      "##챔": 8216,
      "##鄭": 8217,
      "##딥": 8218,
      "##솟": 8219,
      "##代": 8220,
      "##信": 8221,
      "##黨": 8222,
      "##샬": 8223,
      "##늪": 8224,
      "##삽": 8225,
      "##①": 8226,
      "##記": 8227,
      "##松": 8228,
      "##슘": 8229,
      "##內": 8230,
      "##古": 8231,
      "##後": 8232,
      "##路": 8233,
      "##士": 8234,
      "##썬": 8235,
      "##틈": 8236,
      "##눔": 8237,
      "##맙": 8238,
      "##눅": 8239,
      "##꼽": 8240,
      "##퐁": 8241,
      "##싶": 8242,
      "##훼": 8243,
      "##냅": 8244,
      "##푹": 8245,
      "##尹": 8246,
      "##張": 8247,
      "##껑": 8248,
      "##下": 8249,
      "##時": 8250,
      "##羅": 8251,
      "##쿡": 8252,
      "##о": 8253,
      "##の": 8254,
      "##칵": 8255,
      "##넛": 8256,
      "##늠": 8257,
      "##劉": 8258,
      "##챙": 8259,
      "##②": 8260,
      "##皇": 8261,
      "##줍": 8262,
      "##짠": 8263,
      "##將": 8264,
      "##떠": 8265,
      "##帝": 8266,
      "##쏜": 8267,
      "##촘": 8268,
      "##튬": 8269,
      "##낫": 8270,
      "##떴": 8271,
      "##똘": 8272,
      "##낮": 8273,
      "##重": 8274,
      "##찼": 8275,
      "##돗": 8276,
      "##쁨": 8277,
      "##昌": 8278,
      "##쿄": 8279,
      "##α": 8280,
      "##佛": 8281,
      "##堂": 8282,
      "##廣": 8283,
      "##찜": 8284,
      "##吉": 8285,
      "##콥": 8286,
      "##츄": 8287,
      "##ⓒ": 8288,
      "##뀔": 8289,
      "##權": 8290,
      "##씽": 8291,
      "##냄": 8292,
      "##봅": 8293,
      "##늬": 8294,
      "##ℓ": 8295,
      "##名": 8296,
      "##宮": 8297,
      "##뜸": 8298,
      "##十": 8299,
      "##木": 8300,
      "##낀": 8301,
      "##댓": 8302,
      "##分": 8303,
      "##論": 8304,
      "##빡": 8305,
      "##삿": 8306,
      "##四": 8307,
      "##面": 8308,
      "##쉼": 8309,
      "##팁": 8310,
      "##ｍ": 8311,
      "##崔": 8312,
      "##핍": 8313,
      "##듭": 8314,
      "##탠": 8315,
      "##市": 8316,
      "##自": 8317,
      "##е": 8318,
      "##郞": 8319,
      "##벙": 8320,
      "##윅": 8321,
      "##뺀": 8322,
      "##찮": 8323,
      "##톰": 8324,
      "##淸": 8325,
      "##뛸": 8326,
      "##父": 8327,
      "##外": 8328,
      "##댔": 8329,
      "##훙": 8330,
      "##밑": 8331,
      "##텝": 8332,
      "##튀": 8333,
      "##村": 8334,
      "##黃": 8335,
      "##샴": 8336,
      "##캣": 8337,
      "##랬": 8338,
      "##и": 8339,
      "##春": 8340,
      "##룻": 8341,
      "##㎍": 8342,
      "##㎥": 8343,
      "##寧": 8344,
      "##솥": 8345,
      "##像": 8346,
      "##욘": 8347,
      "##二": 8348,
      "##福": 8349,
      "##귤": 8350,
      "##뎌": 8351,
      "##九": 8352,
      "##陵": 8353,
      "##깡": 8354,
      "##뺨": 8355,
      "##쎄": 8356,
      "##治": 8357,
      "##者": 8358,
      "##＞": 8359,
      "##＜": 8360,
      "##뛰": 8361,
      "##圖": 8362,
      "##끌": 8363,
      "##孝": 8364,
      "##花": 8365,
      "##쌈": 8366,
      "##物": 8367,
      "##덮": 8368,
      "##兵": 8369,
      "##祖": 8370,
      "##禮": 8371,
      "##動": 8372,
      "##랠": 8373,
      "##즙": 8374,
      "##別": 8375,
      "##與": 8376,
      "##英": 8377,
      "##身": 8378,
      "##챗": 8379,
      "##守": 8380,
      "##萬": 8381,
      "##令": 8382,
      "##建": 8383,
      "##眞": 8384,
      "##谷": 8385,
      "##섀": 8386,
      "##퀀": 8387,
      "##헝": 8388,
      "##風": 8389,
      "##촨": 8390,
      "##樂": 8391,
      "##體": 8392,
      "##륵": 8393,
      "##쉰": 8394,
      "##쨌": 8395,
      "##댈": 8396,
      "##р": 8397,
      "##랏": 8398,
      "##雲": 8399,
      "##③": 8400,
      "##合": 8401,
      "##周": 8402,
      "##멕": 8403,
      "##八": 8404,
      "##孫": 8405,
      "##業": 8406,
      "##귄": 8407,
      "##롄": 8408,
      "##툭": 8409,
      "##節": 8410,
      "##씹": 8411,
      "##잼": 8412,
      "##텅": 8413,
      "##팻": 8414,
      "##衛": 8415,
      "##見": 8416,
      "##퀵": 8417,
      "##곶": 8418,
      "##侯": 8419,
      "##볕": 8420,
      "##初": 8421,
      "##字": 8422,
      "##洪": 8423,
      "##驛": 8424,
      "##싯": 8425,
      "##н": 8426,
      "##利": 8427,
      "##議": 8428,
      "##탔": 8429,
      "##댁": 8430,
      "##딤": 8431,
      "##ㅣ": 8432,
      "##柳": 8433,
      "##監": 8434,
      "##線": 8435,
      "##開": 8436,
      "##μ": 8437,
      "##•": 8438,
      "##吳": 8439,
      "##星": 8440,
      "##딧": 8441,
      "##․": 8442,
      "##作": 8443,
      "##立": 8444,
      "##宋": 8445,
      "##的": 8446,
      "##엥": 8447,
      "##с": 8448,
      "##先": 8449,
      "##｜": 8450,
      "##判": 8451,
      "##큘": 8452,
      "##텃": 8453,
      "##い": 8454,
      "##景": 8455,
      "##к": 8456,
      "##基": 8457,
      "##多": 8458,
      "##힙": 8459,
      "##康": 8460,
      "##數": 8461,
      "##直": 8462,
      "##省": 8463,
      "##空": 8464,
      "##괘": 8465,
      "##왜": 8466,
      "##얘": 8467,
      "##웜": 8468,
      "##章": 8469,
      "##윽": 8470,
      "##位": 8471,
      "##制": 8472,
      "##發": 8473,
      "##臺": 8474,
      "##進": 8475,
      "##겟": 8476,
      "##몫": 8477,
      "##傳": 8478,
      "##度": 8479,
      "##탭": 8480,
      "##챌": 8481,
      "##ー": 8482,
      "##功": 8483,
      "##尙": 8484,
      "##웍": 8485,
      "##强": 8486,
      "##▼": 8487,
      "##殿": 8488,
      "##濟": 8489,
      "##玉": 8490,
      "##깬": 8491,
      "##뽕": 8492,
      "##富": 8493,
      "##♥": 8494,
      "##六": 8495,
      "##벵": 8496,
      "##췌": 8497,
      "##女": 8498,
      "##寶": 8499,
      "##津": 8500,
      "##源": 8501,
      "##鎭": 8502,
      "##車": 8503,
      "##깁": 8504,
      "##몹": 8505,
      "##報": 8506,
      "##貞": 8507,
      "##集": 8508,
      "##根": 8509,
      "##觀": 8510,
      "##훤": 8511,
      "##實": 8512,
      "##曹": 8513,
      "##氣": 8514,
      "##界": 8515,
      "##色": 8516,
      "##눕": 8517,
      "##덥": 8518,
      "##в": 8519,
      "##産": 8520,
      "##科": 8521,
      "##館": 8522,
      "##맴": 8523,
      "##얏": 8524,
      "##副": 8525,
      "##命": 8526,
      "##承": 8527,
      "##流": 8528,
      "##百": 8529,
      "##說": 8530,
      "##阿": 8531,
      "##ü": 8532,
      "##壽": 8533,
      "##憲": 8534,
      "##泰": 8535,
      "##젯": 8536,
      "##캅": 8537,
      "##任": 8538,
      "##思": 8539,
      "##音": 8540,
      "##쫄": 8541,
      "##在": 8542,
      "##徐": 8543,
      "##良": 8544,
      "##쏴": 8545,
      "##侍": 8546,
      "##后": 8547,
      "##派": 8548,
      "##뎀": 8549,
      "##셧": 8550,
      "##〃": 8551,
      "##志": 8552,
      "##셴": 8553,
      "##쌌": 8554,
      "##컥": 8555,
      "##튠": 8556,
      "##@": 8557,
      "##場": 8558,
      "##甲": 8559,
      "##鄕": 8560,
      "##※": 8561,
      "##溪": 8562,
      "##陳": 8563,
      "##쭈": 8564,
      "##훌": 8565,
      "##±": 8566,
      "##土": 8567,
      "##應": 8568,
      "##슝": 8569,
      "##쏙": 8570,
      "##팥": 8571,
      "##왼": 8572,
      "##典": 8573,
      "##延": 8574,
      "##式": 8575,
      "##愛": 8576,
      "##族": 8577,
      "##智": 8578,
      "##歌": 8579,
      "##湖": 8580,
      "##頭": 8581,
      "##來": 8582,
      "##浦": 8583,
      "##老": 8584,
      "##造": 8585,
      "##保": 8586,
      "##勝": 8587,
      "##申": 8588,
      "##땠": 8589,
      "##л": 8590,
      "##宣": 8591,
      "##퉈": 8592,
      "##꿔": 8593,
      "##口": 8594,
      "##死": 8595,
      "##禪": 8596,
      "##鮮": 8597,
      "##쉘": 8598,
      "##헥": 8599,
      "##意": 8600,
      "##敬": 8601,
      "##語": 8602,
      "##숀": 8603,
      "##얕": 8604,
      "##꿋": 8605,
      "##修": 8606,
      "##工": 8607,
      "##넉": 8608,
      "##帶": 8609,
      "##섣": 8610,
      "##想": 8611,
      "##짤": 8612,
      "##－": 8613,
      "##奉": 8614,
      "##弘": 8615,
      "##言": 8616,
      "##샨": 8617,
      "##숫": 8618,
      "##쟈": 8619,
      "##力": 8620,
      "##雄": 8621,
      "##믈": 8622,
      "##á": 8623,
      "##楊": 8624,
      "##用": 8625,
      "##썹": 8626,
      "##七": 8627,
      "##加": 8628,
      "##橋": 8629,
      "##畵": 8630,
      "##私": 8631,
      "##起": 8632,
      "##쩡": 8633,
      "##뫼": 8634,
      "##т": 8635,
      "##홋": 8636,
      "##常": 8637,
      "##朱": 8638,
      "##異": 8639,
      "##達": 8640,
      "##쾰": 8641,
      "##如": 8642,
      "##藤": 8643,
      "##許": 8644,
      "##唐": 8645,
      "##波": 8646,
      "##껄": 8647,
      "##쑨": 8648,
      "##폄": 8649,
      "##앳": 8650,
      "##Ⅱ": 8651,
      "##出": 8652,
      "##參": 8653,
      "##選": 8654,
      "##왁": 8655,
      "##짬": 8656,
      "##☆": 8657,
      "##井": 8658,
      "##克": 8659,
      "##團": 8660,
      "##秀": 8661,
      "##땡": 8662,
      "##ㅋ": 8663,
      "##빼": 8664,
      "##렷": 8665,
      "##国": 8666,
      "##左": 8667,
      "##形": 8668,
      "##碑": 8669,
      "##脫": 8670,
      "##켐": 8671,
      "##ㅡ": 8672,
      "##丁": 8673,
      "##商": 8674,
      "##御": 8675,
      "##護": 8676,
      "##둡": 8677,
      "##벗": 8678,
      "##즉": 8679,
      "##ο": 8680,
      "##火": 8681,
      "##뮈": 8682,
      "##캇": 8683,
      "##및": 8684,
      "##手": 8685,
      "##靈": 8686,
      "##궂": 8687,
      "##닙": 8688,
      "##찻": 8689,
      "##펭": 8690,
      "##넵": 8691,
      "##댕": 8692,
      "##$": 8693,
      "##首": 8694,
      "##깅": 8695,
      "##렙": 8696,
      "##멱": 8697,
      "##펩": 8698,
      "##ö": 8699,
      "##뻘": 8700,
      "##컹": 8701,
      "##핼": 8702,
      "##右": 8703,
      "##夏": 8704,
      "##梁": 8705,
      "##遠": 8706,
      "##킵": 8707,
      "##헷": 8708,
      "##印": 8709,
      "##員": 8710,
      "##岩": 8711,
      "##果": 8712,
      "##機": 8713,
      "##竹": 8714,
      "##轉": 8715,
      "##륭": 8716,
      "##밧": 8717,
      "##м": 8718,
      "##共": 8719,
      "##千": 8720,
      "##嘉": 8721,
      "##塔": 8722,
      "##察": 8723,
      "##惠": 8724,
      "##解": 8725,
      "##뇽": 8726,
      "##꼭": 8727,
      "##李": 8728,
      "##ン": 8729,
      "##욤": 8730,
      "##球": 8731,
      "##錄": 8732,
      "##電": 8733,
      "##쁠": 8734,
      "##受": 8735,
      "##惡": 8736,
      "##榮": 8737,
      "##現": 8738,
      "##λ": 8739,
      "##≫": 8740,
      "##亭": 8741,
      "##因": 8742,
      "##得": 8743,
      "##從": 8744,
      "##禁": 8745,
      "##藏": 8746,
      "##間": 8747,
      "##걱": 8748,
      "##찐": 8749,
      "##④": 8750,
      "##伊": 8751,
      "##務": 8752,
      "##博": 8753,
      "##始": 8754,
      "##密": 8755,
      "##恩": 8756,
      "##沈": 8757,
      "##沙": 8758,
      "##玄": 8759,
      "##運": 8760,
      "##묻": 8761,
      "##ς": 8762,
      "##ㅎ": 8763,
      "##器": 8764,
      "##舊": 8765,
      "##豊": 8766,
      "##遺": 8767,
      "##銀": 8768,
      "##齋": 8769,
      "##꽝": 8770,
      "##꾹": 8771,
      "##밈": 8772,
      "##춥": 8773,
      "##갸": 8774,
      "##我": 8775,
      "##船": 8776,
      "##處": 8777,
      "##佐": 8778,
      "##友": 8779,
      "##廳": 8780,
      "##賢": 8781,
      "##뗄": 8782,
      "##숏": 8783,
      "##얌": 8784,
      "##젬": 8785,
      "##（": 8786,
      "##ا": 8787,
      "##△": 8788,
      "##í": 8789,
      "##○": 8790,
      "##丹": 8791,
      "##伯": 8792,
      "##澤": 8793,
      "##營": 8794,
      "##祭": 8795,
      "##訪": 8796,
      "##뵈": 8797,
      "##팸": 8798,
      "##，": 8799,
      "##퓰": 8800,
      "##泉": 8801,
      "##種": 8802,
      "##鳳": 8803,
      "##麗": 8804,
      "##깍": 8805,
      "##맬": 8806,
      "##뮌": 8807,
      "##局": 8808,
      "##復": 8809,
      "##益": 8810,
      "##角": 8811,
      "##錫": 8812,
      "##볐": 8813,
      "##앴": 8814,
      "##쥘": 8815,
      "##^": 8816,
      "##鶴": 8817,
      "##ρ": 8818,
      "##넴": 8819,
      "##植": 8820,
      "##毅": 8821,
      "##熙": 8822,
      "##管": 8823,
      "##鐵": 8824,
      "##껌": 8825,
      "##랗": 8826,
      "##밟": 8827,
      "##坐": 8828,
      "##烈": 8829,
      "##統": 8830,
      "##資": 8831,
      "##魚": 8832,
      "##덫": 8833,
      "##可": 8834,
      "##結": 8835,
      "##試": 8836,
      "##貴": 8837,
      "##邊": 8838,
      "##헴": 8839,
      "##入": 8840,
      "##區": 8841,
      "##半": 8842,
      "##瑞": 8843,
      "##稅": 8844,
      "##郎": 8845,
      "##陸": 8846,
      "##魏": 8847,
      "##놉": 8848,
      "##촐": 8849,
      "##웹": 8850,
      "##う": 8851,
      "##■": 8852,
      "##奇": 8853,
      "##宇": 8854,
      "##房": 8855,
      "##曲": 8856,
      "##防": 8857,
      "##뻑": 8858,
      "##샛": 8859,
      "##쩌": 8860,
      "##낄": 8861,
      "##ó": 8862,
      "##儀": 8863,
      "##圈": 8864,
      "##園": 8865,
      "##提": 8866,
      "##晉": 8867,
      "##毛": 8868,
      "##緣": 8869,
      "##育": 8870,
      "##蘇": 8871,
      "##類": 8872,
      "##交": 8873,
      "##偉": 8874,
      "##域": 8875,
      "##室": 8876,
      "##杜": 8877,
      "##滿": 8878,
      "##總": 8879,
      "##能": 8880,
      "##覺": 8881,
      "##財": 8882,
      "##갭": 8883,
      "##뮐": 8884,
      "##슌": 8885,
      "##㎢": 8886,
      "##俊": 8887,
      "##妃": 8888,
      "##慧": 8889,
      "##港": 8890,
      "##特": 8891,
      "##第": 8892,
      "##系": 8893,
      "##赤": 8894,
      "##連": 8895,
      "##領": 8896,
      "##駐": 8897,
      "##녜": 8898,
      "##뗀": 8899,
      "##욜": 8900,
      "##챠": 8901,
      "##ε": 8902,
      "##乙": 8903,
      "##次": 8904,
      "##環": 8905,
      "##純": 8906,
      "##群": 8907,
      "##菩": 8908,
      "##у": 8909,
      "##協": 8910,
      "##姓": 8911,
      "##峰": 8912,
      "##燕": 8913,
      "##範": 8914,
      "##草": 8915,
      "##薩": 8916,
      "##顯": 8917,
      "##食": 8918,
      "##줏": 8919,
      "##훅": 8920,
      "##不": 8921,
      "##ν": 8922,
      "##な": 8923,
      "##\\": 8924,
      "##ん": 8925,
      "##卿": 8926,
      "##呂": 8927,
      "##容": 8928,
      "##廟": 8929,
      "##期": 8930,
      "##獨": 8931,
      "##秦": 8932,
      "##쩐": 8933,
      "##τ": 8934,
      "##と": 8935,
      "##↑": 8936,
      "##る": 8937,
      "##品": 8938,
      "##居": 8939,
      "##溫": 8940,
      "##町": 8941,
      "##虎": 8942,
      "##閣": 8943,
      "##齊": 8944,
      "##쑹": 8945,
      "##倉": 8946,
      "##刑": 8947,
      "##圓": 8948,
      "##境": 8949,
      "##墓": 8950,
      "##巖": 8951,
      "##望": 8952,
      "##檢": 8953,
      "##滅": 8954,
      "##臨": 8955,
      "##舍": 8956,
      "##諸": 8957,
      "##꼰": 8958,
      "##퀼": 8959,
      "##굉": 8960,
      "##僧": 8961,
      "##嚴": 8962,
      "##致": 8963,
      "##變": 8964,
      "##멩": 8965,
      "##콴": 8966,
      "##少": 8967,
      "##盛": 8968,
      "##衆": 8969,
      "##邑": 8970,
      "##ι": 8971,
      "##쏠": 8972,
      "##イ": 8973,
      "##й": 8974,
      "##姜": 8975,
      "##案": 8976,
      "##浩": 8977,
      "##精": 8978,
      "##署": 8979,
      "##術": 8980,
      "##뿍": 8981,
      "##ā": 8982,
      "##뀌": 8983,
      "##ス": 8984,
      "##久": 8985,
      "##價": 8986,
      "##吏": 8987,
      "##咸": 8988,
      "##戶": 8989,
      "##支": 8990,
      "##敵": 8991,
      "##斷": 8992,
      "##淵": 8993,
      "##目": 8994,
      "##聲": 8995,
      "##胡": 8996,
      "##苦": 8997,
      "##調": 8998,
      "##퓌": 8999,
      "##台": 9000,
      "##樹": 9001,
      "##表": 9002,
      "##警": 9003,
      "##陰": 9004,
      "##鳥": 9005,
      "##좀": 9006,
      "##～": 9007,
      "##か": 9008,
      "##ㅠ": 9009,
      "##完": 9010,
      "##柱": 9011,
      "##極": 9012,
      "##計": 9013,
      "##超": 9014,
      "##農": 9015,
      "##낵": 9016,
      "##ラ": 9017,
      "##低": 9018,
      "##增": 9019,
      "##好": 9020,
      "##巨": 9021,
      "##樞": 9022,
      "##池": 9023,
      "##足": 9024,
      "##酒": 9025,
      "##雨": 9026,
      "##麻": 9027,
      "##렝": 9028,
      "##엡": 9029,
      "##㎎": 9030,
      "##尊": 9031,
      "##布": 9032,
      "##彦": 9033,
      "##最": 9034,
      "##至": 9035,
      "##葉": 9036,
      "##靖": 9037,
      "##핌": 9038,
      "##«": 9039,
      "##»": 9040,
      "##勳": 9041,
      "##夜": 9042,
      "##屋": 9043,
      "##崇": 9044,
      "##求": 9045,
      "##牛": 9046,
      "##牧": 9047,
      "##職": 9048,
      "##賀": 9049,
      "##郭": 9050,
      "##雙": 9051,
      "##養": 9052,
      "##ä": 9053,
      "##ㅇ": 9054,
      "##ل": 9055,
      "##し": 9056,
      "##캥": 9057,
      "##丘": 9058,
      "##健": 9059,
      "##喜": 9060,
      "##封": 9061,
      "##淳": 9062,
      "##翼": 9063,
      "##듐": 9064,
      "##잰": 9065,
      "##휼": 9066,
      "##仙": 9067,
      "##仲": 9068,
      "##備": 9069,
      "##再": 9070,
      "##尉": 9071,
      "##板": 9072,
      "##洋": 9073,
      "##烏": 9074,
      "##珍": 9075,
      "##舞": 9076,
      "##鍾": 9077,
      "##難": 9078,
      "##돛": 9079,
      "##д": 9080,
      "##儒": 9081,
      "##岡": 9082,
      "##彌": 9083,
      "##慈": 9084,
      "##改": 9085,
      "##放": 9086,
      "##深": 9087,
      "##然": 9088,
      "##聯": 9089,
      "##蔡": 9090,
      "##贊": 9091,
      "##댑": 9092,
      "##맸": 9093,
      "##볜": 9094,
      "##쿰": 9095,
      "##찹": 9096,
      "##캬": 9097,
      "##←": 9098,
      "##ま": 9099,
      "##㎾": 9100,
      "##솽": 9101,
      "##ㄱ": 9102,
      "##件": 9103,
      "##兩": 9104,
      "##剛": 9105,
      "##址": 9106,
      "##客": 9107,
      "##害": 9108,
      "##律": 9109,
      "##感": 9110,
      "##比": 9111,
      "##病": 9112,
      "##誠": 9113,
      "##陀": 9114,
      "##쳇": 9115,
      "##댜": 9116,
      "##끗": 9117,
      "##κ": 9118,
      "##【": 9119,
      "##り": 9120,
      "##ト": 9121,
      "##于": 9122,
      "##住": 9123,
      "##則": 9124,
      "##勢": 9125,
      "##普": 9126,
      "##淑": 9127,
      "##速": 9128,
      "##꿍": 9129,
      "##쵸": 9130,
      "##숯": 9131,
      "##³": 9132,
      "##—": 9133,
      "##Ⅲ": 9134,
      "##き": 9135,
      "##具": 9136,
      "##句": 9137,
      "##向": 9138,
      "##均": 9139,
      "##失": 9140,
      "##学": 9141,
      "##敏": 9142,
      "##斗": 9143,
      "##條": 9144,
      "##督": 9145,
      "##網": 9146,
      "##若": 9147,
      "##蓮": 9148,
      "##藩": 9149,
      "##送": 9150,
      "##隊": 9151,
      "##骨": 9152,
      "##뎁": 9153,
      "##룹": 9154,
      "##듈": 9155,
      "##ッ": 9156,
      "##뉜": 9157,
      "##è": 9158,
      "##た": 9159,
      "##回": 9160,
      "##孔": 9161,
      "##庵": 9162,
      "##恒": 9163,
      "##獻": 9164,
      "##祠": 9165,
      "##程": 9166,
      "##輔": 9167,
      "##邦": 9168,
      "##웡": 9169,
      "##쾨": 9170,
      "##σ": 9171,
      "##取": 9172,
      "##哲": 9173,
      "##委": 9174,
      "##宜": 9175,
      "##惱": 9176,
      "##服": 9177,
      "##桂": 9178,
      "##淨": 9179,
      "##翁": 9180,
      "##莊": 9181,
      "##衣": 9182,
      "##詞": 9183,
      "##譜": 9184,
      "##質": 9185,
      "##辛": 9186,
      "##量": 9187,
      "##限": 9188,
      "##雪": 9189,
      "##냇": 9190,
      "##먀": 9191,
      "##샅": 9192,
      "##쓱": 9193,
      "##¤": 9194,
      "##ㄷ": 9195,
      "##今": 9196,
      "##兼": 9197,
      "##助": 9198,
      "##型": 9199,
      "##庫": 9200,
      "##念": 9201,
      "##懷": 9202,
      "##技": 9203,
      "##由": 9204,
      "##皮": 9205,
      "##筆": 9206,
      "##藝": 9207,
      "##隆": 9208,
      "##뎅": 9209,
      "##숄": 9210,
      "##쏭": 9211,
      "##힝": 9212,
      "##ル": 9213,
      "##Ⅰ": 9214,
      "##ら": 9215,
      "##劇": 9216,
      "##宅": 9217,
      "##岸": 9218,
      "##己": 9219,
      "##戦": 9220,
      "##旗": 9221,
      "##梅": 9222,
      "##盧": 9223,
      "##簡": 9224,
      "##聞": 9225,
      "##蘭": 9226,
      "##象": 9227,
      "##載": 9228,
      "##離": 9229,
      "##餘": 9230,
      "##꺽": 9231,
      "##맣": 9232,
      "##츨": 9233,
      "##β": 9234,
      "##リ": 9235,
      "##π": 9236,
      "##я": 9237,
      "##亞": 9238,
      "##列": 9239,
      "##弼": 9240,
      "##晩": 9241,
      "##格": 9242,
      "##欲": 9243,
      "##煥": 9244,
      "##熊": 9245,
      "##狀": 9246,
      "##硏": 9247,
      "##錦": 9248,
      "##閔": 9249,
      "##靜": 9250,
      "##땜": 9251,
      "##뻥": 9252,
      "##⑤": 9253,
      "##み": 9254,
      "##팹": 9255,
      "##밉": 9256,
      "##δ": 9257,
      "##に": 9258,
      "##休": 9259,
      "##單": 9260,
      "##圭": 9261,
      "##夢": 9262,
      "##射": 9263,
      "##末": 9264,
      "##樓": 9265,
      "##登": 9266,
      "##遼": 9267,
      "##갠": 9268,
      "##듦": 9269,
      "##쫑": 9270,
      "##홧": 9271,
      "##盧": 9272,
      "##윷": 9273,
      "##ク": 9274,
      "##タ": 9275,
      "##允": 9276,
      "##兒": 9277,
      "##恭": 9278,
      "##未": 9279,
      "##殺": 9280,
      "##穆": 9281,
      "##約": 9282,
      "##街": 9283,
      "##要": 9284,
      "##醫": 9285,
      "##釋": 9286,
      "##黑": 9287,
      "##겅": 9288,
      "##金": 9289,
      "##뇰": 9290,
      "##틔": 9291,
      "##펍": 9292,
      "##亂": 9293,
      "##冠": 9294,
      "##刊": 9295,
      "##央": 9296,
      "##妙": 9297,
      "##威": 9298,
      "##孟": 9299,
      "##岳": 9300,
      "##熱": 9301,
      "##爾": 9302,
      "##眼": 9303,
      "##菅": 9304,
      "##誌": 9305,
      "##講": 9306,
      "##賞": 9307,
      "##遊": 9308,
      "##냠": 9309,
      "##빕": 9310,
      "##셍": 9311,
      "##텟": 9312,
      "##シ": 9313,
      "##ç": 9314,
      "##ú": 9315,
      "##ы": 9316,
      "##㏊": 9317,
      "##假": 9318,
      "##問": 9319,
      "##層": 9320,
      "##懿": 9321,
      "##持": 9322,
      "##摠": 9323,
      "##散": 9324,
      "##敦": 9325,
      "##株": 9326,
      "##桓": 9327,
      "##油": 9328,
      "##煩": 9329,
      "##素": 9330,
      "##考": 9331,
      "##藥": 9332,
      "##裕": 9333,
      "##話": 9334,
      "##越": 9335,
      "##ن": 9336,
      "##′": 9337,
      "##ㅅ": 9338,
      "##俗": 9339,
      "##僉": 9340,
      "##卞": 9341,
      "##執": 9342,
      "##壇": 9343,
      "##指": 9344,
      "##易": 9345,
      "##楚": 9346,
      "##演": 9347,
      "##祿": 9348,
      "##究": 9349,
      "##籍": 9350,
      "##葬": 9351,
      "##規": 9352,
      "##貪": 9353,
      "##輪": 9354,
      "##辭": 9355,
      "##銅": 9356,
      "##隨": 9357,
      "##魯": 9358,
      "##點": 9359,
      "##龜": 9360,
      "##귈": 9361,
      "##좡": 9362,
      "##兩": 9363,
      "##▽": 9364,
      "##옆": 9365,
      "##떤": 9366,
      "##だ": 9367,
      "##峴": 9368,
      "##希": 9369,
      "##席": 9370,
      "##干": 9371,
      "##征": 9372,
      "##微": 9373,
      "##慕": 9374,
      "##戒": 9375,
      "##是": 9376,
      "##準": 9377,
      "##症": 9378,
      "##祐": 9379,
      "##移": 9380,
      "##積": 9381,
      "##細": 9382,
      "##肅": 9383,
      "##裵": 9384,
      "##諫": 9385,
      "##過": 9386,
      "##雜": 9387,
      "##麟": 9388,
      "##뚤": 9389,
      "##쉑": 9390,
      "##텡": 9391,
      "##｢": 9392,
      "##｣": 9393,
      "##뱌": 9394,
      "##쿱": 9395,
      "##г": 9396,
      "##伏": 9397,
      "##切": 9398,
      "##夷": 9399,
      "##展": 9400,
      "##嶺": 9401,
      "##座": 9402,
      "##徳": 9403,
      "##摩": 9404,
      "##歸": 9405,
      "##注": 9406,
      "##洲": 9407,
      "##珠": 9408,
      "##終": 9409,
      "##製": 9410,
      "##訓": 9411,
      "##證": 9412,
      "##逆": 9413,
      "##邱": 9414,
      "##釜": 9415,
      "##鴻": 9416,
      "##셩": 9417,
      "##튈": 9418,
      "##К": 9419,
      "##넓": 9420,
      "##ド": 9421,
      "##윳": 9422,
      "##つ": 9423,
      "##丙": 9424,
      "##冬": 9425,
      "##匠": 9426,
      "##幸": 9427,
      "##役": 9428,
      "##犯": 9429,
      "##祥": 9430,
      "##禹": 9431,
      "##端": 9432,
      "##紅": 9433,
      "##茂": 9434,
      "##觸": 9435,
      "##鏡": 9436,
      "##雅": 9437,
      "##題": 9438,
      "##쌤": 9439,
      "##홑": 9440,
      "##㎒": 9441,
      "##勞": 9442,
      "##坂": 9443,
      "##尾": 9444,
      "##愼": 9445,
      "##査": 9446,
      "##洙": 9447,
      "##甘": 9448,
      "##落": 9449,
      "##陶": 9450,
      "##震": 9451,
      "##쟤": 9452,
      "##뎬": 9453,
      "##γ": 9454,
      "##ı": 9455,
      "##ㄴ": 9456,
      "##乘": 9457,
      "##乾": 9458,
      "##介": 9459,
      "##宰": 9460,
      "##寬": 9461,
      "##巴": 9462,
      "##庭": 9463,
      "##影": 9464,
      "##振": 9465,
      "##歲": 9466,
      "##殷": 9467,
      "##洛": 9468,
      "##県": 9469,
      "##綱": 9470,
      "##羽": 9471,
      "##肉": 9472,
      "##蓋": 9473,
      "##血": 9474,
      "##視": 9475,
      "##輸": 9476,
      "##쾅": 9477,
      "##훠": 9478,
      "##힉": 9479,
      "##좁": 9480,
      "##슷": 9481,
      "##η": 9482,
      "##お": 9483,
      "##以": 9484,
      "##会": 9485,
      "##勇": 9486,
      "##卷": 9487,
      "##啓": 9488,
      "##專": 9489,
      "##尼": 9490,
      "##廷": 9491,
      "##忍": 9492,
      "##渡": 9493,
      "##潤": 9494,
      "##策": 9495,
      "##茶": 9496,
      "##襄": 9497,
      "##設": 9498,
      "##鄧": 9499,
      "##겜": 9500,
      "##긱": 9501,
      "##넝": 9502,
      "##ب": 9503,
      "##늉": 9504,
      "##첫": 9505,
      "##п": 9506,
      "##て": 9507,
      "##ь": 9508,
      "##ア": 9509,
      "##€": 9510,
      "##が": 9511,
      "##㎖": 9512,
      "##丞": 9513,
      "##亨": 9514,
      "##倭": 9515,
      "##刻": 9516,
      "##叔": 9517,
      "##墨": 9518,
      "##姬": 9519,
      "##審": 9520,
      "##屬": 9521,
      "##必": 9522,
      "##才": 9523,
      "##森": 9524,
      "##減": 9525,
      "##當": 9526,
      "##疏": 9527,
      "##童": 9528,
      "##際": 9529,
      "##빤": 9530,
      "##웁": 9531,
      "##젼": 9532,
      "##ά": 9533,
      "##ω": 9534,
      "##ч": 9535,
      "##뀐": 9536,
      "##っ": 9537,
      "##く": 9538,
      "##は": 9539,
      "##š": 9540,
      "##ち": 9541,
      "##也": 9542,
      "##岐": 9543,
      "##差": 9544,
      "##施": 9545,
      "##核": 9546,
      "##活": 9547,
      "##浙": 9548,
      "##略": 9549,
      "##磁": 9550,
      "##般": 9551,
      "##邪": 9552,
      "##뵐": 9553,
      "##얍": 9554,
      "##젭": 9555,
      "##펨": 9556,
      "##さ": 9557,
      "##핫": 9558,
      "##ر": 9559,
      "##⑥": 9560,
      "##ㄹ": 9561,
      "##内": 9562,
      "##区": 9563,
      "##固": 9564,
      "##奎": 9565,
      "##推": 9566,
      "##擧": 9567,
      "##汝": 9568,
      "##浪": 9569,
      "##清": 9570,
      "##琴": 9571,
      "##砲": 9572,
      "##站": 9573,
      "##補": 9574,
      "##謙": 9575,
      "##輝": 9576,
      "##鉉": 9577,
      "##阪": 9578,
      "##鹿": 9579,
      "##굼": 9580,
      "##꼿": 9581,
      "##띵": 9582,
      "##뮴": 9583,
      "##헵": 9584,
      "##勞": 9585,
      "##꿩": 9586,
      "##θ": 9587,
      "##و": 9588,
      "##♡": 9589,
      "##す": 9590,
      "##ㅈ": 9591,
      "##倫": 9592,
      "##凉": 9593,
      "##創": 9594,
      "##告": 9595,
      "##存": 9596,
      "##寫": 9597,
      "##庶": 9598,
      "##扶": 9599,
      "##旨": 9600,
      "##昇": 9601,
      "##曾": 9602,
      "##染": 9603,
      "##構": 9604,
      "##浮": 9605,
      "##甫": 9606,
      "##續": 9607,
      "##置": 9608,
      "##芳": 9609,
      "##蒙": 9610,
      "##讀": 9611,
      "##退": 9612,
      "##銘": 9613,
      "##鎬": 9614,
      "##눗": 9615,
      "##뷴": 9616,
      "##훨": 9617,
      "##М": 9618,
      "##픔": 9619,
      "##б": 9620,
      "##コ": 9621,
      "##ロ": 9622,
      "##à": 9623,
      "##ί": 9624,
      "##味": 9625,
      "##喪": 9626,
      "##契": 9627,
      "##引": 9628,
      "##惟": 9629,
      "##料": 9630,
      "##段": 9631,
      "##磨": 9632,
      "##秘": 9633,
      "##維": 9634,
      "##而": 9635,
      "##舟": 9636,
      "##葛": 9637,
      "##蘊": 9638,
      "##虛": 9639,
      "##談": 9640,
      "##辰": 9641,
      "##騎": 9642,
      "##섶": 9643,
      "##탯": 9644,
      "##･": 9645,
      "##ø": 9646,
      "##＝": 9647,
      "##キ": 9648,
      "##ī": 9649,
      "##㎛": 9650,
      "##㎿": 9651,
      "##亮": 9652,
      "##刺": 9653,
      "##包": 9654,
      "##匡": 9655,
      "##厚": 9656,
      "##坡": 9657,
      "##壁": 9658,
      "##就": 9659,
      "##廉": 9660,
      "##旅": 9661,
      "##曺": 9662,
      "##梵": 9663,
      "##橫": 9664,
      "##止": 9665,
      "##災": 9666,
      "##燈": 9667,
      "##盟": 9668,
      "##碩": 9669,
      "##納": 9670,
      "##織": 9671,
      "##請": 9672,
      "##謝": 9673,
      "##貨": 9674,
      "##賜": 9675,
      "##軒": 9676,
      "##輕": 9677,
      "##追": 9678,
      "##那": 9679,
      "##鑑": 9680,
      "##隱": 9681,
      "##項": 9682,
      "##鬼": 9683,
      "##꿉": 9684,
      "##잽": 9685,
      "##쪄": 9686,
      "##ό": 9687,
      "##쩔": 9688,
      "##х": 9689,
      "##を": 9690,
      "##С": 9691,
      "##れ": 9692,
      "##何": 9693,
      "##兆": 9694,
      "##劍": 9695,
      "##唱": 9696,
      "##季": 9697,
      "##崎": 9698,
      "##序": 9699,
      "##抗": 9700,
      "##揚": 9701,
      "##援": 9702,
      "##材": 9703,
      "##条": 9704,
      "##梨": 9705,
      "##瀋": 9706,
      "##獄": 9707,
      "##盤": 9708,
      "##米": 9709,
      "##紙": 9710,
      "##紫": 9711,
      "##繼": 9712,
      "##耶": 9713,
      "##背": 9714,
      "##贈": 9715,
      "##逸": 9716,
      "##錢": 9717,
      "##附": 9718,
      "##頂": 9719,
      "##レ": 9720,
      "##훗": 9721,
      "##촛": 9722,
      "##컫": 9723,
      "##뒷": 9724,
      "##탓": 9725,
      "##빚": 9726,
      "##밝": 9727,
      "##옛": 9728,
      "##띄": 9729,
      "##곁": 9730,
      "##뭐": 9731,
      "##삶": 9732,
      "##눠": 9733,
      "##끊": 9734,
      "##몇": 9735,
      "##잊": 9736,
      "##묀": 9737,
      "##쪘": 9738,
      "##뼘": 9739,
      "##펐": 9740,
      "##랖": 9741,
      "##떄": 9742,
      "##号": 9743,
      "##依": 9744,
      "##쫀": 9745,
      "##쇳": 9746,
      "##탉": 9747,
      "##뒹": 9748,
      "##헉": 9749,
      "##옻": 9750,
      "##엷": 9751,
      "##留": 9752,
      "##껐": 9753,
      "##똣": 9754,
      "##쌩": 9755,
      "##닳": 9756,
      "##豆": 9757,
      "##−": 9758,
      "##袁": 9759,
      "##組": 9760,
      "##〜": 9761,
      "##훑": 9762,
      "##뻣": 9763,
      "##뷸": 9764,
      "##텄": 9765,
      "##횃": 9766,
      "##튤": 9767,
      "##셌": 9768,
      "##뺄": 9769,
      "##잿": 9770,
      "##깰": 9771,
      "##飛": 9772,
      "##½": 9773,
      "##숟": 9774,
      "##걔": 9775,
      "##】": 9776,
      "##뼛": 9777,
      "##찡": 9778,
      "##챕": 9779,
      "##윔": 9780,
      "##。": 9781,
      "##퍽": 9782,
      "##짰": 9783,
      "##켠": 9784,
      "##헹": 9785,
      "##녘": 9786,
      "##넋": 9787,
      "##왠": 9788,
      "##얗": 9789,
      "##짊": 9790,
      "##땃": 9791,
      "##켤": 9792,
      "##옅": 9793,
      "##}": 9794,
      "##쐈": 9795,
      "##뎠": 9796,
      "##텁": 9797,
      "##귓": 9798,
      "##잤": 9799,
      "##爲": 9800,
      "##웸": 9801,
      "##識": 9802,
      "##좇": 9803,
      "##{": 9804,
      "##秋": 9805,
      "###": 9806,
      "##：": 9807,
      "##튕": 9808,
      "##≪": 9809,
      "##）": 9810,
      "##香": 9811,
      "##紀": 9812,
      "##읊": 9813,
      "##昭": 9814,
      "##情": 9815,
      "##솎": 9816,
      "##關": 9817,
      "##띔": 9818,
      "##챘": 9819,
      "##뺐": 9820,
      "##엌": 9821,
      "##썽": 9822,
      "##뵙": 9823,
      "##윕": 9824,
      "##깼": 9825,
      "##텼": 9826,
      "##빴": 9827,
      "##츰": 9828,
      "##슭": 9829,
      "##떳": 9830,
      "##춧": 9831,
      "##뺑": 9832,
      "##긁": 9833,
      "##씁": 9834,
      "##숱": 9835,
      "##궜": 9836,
      "##詩": 9837,
      "##號": 9838,
      "##빽": 9839,
      "##뾰": 9840,
      "##튿": 9841,
      "##팠": 9842,
      "##짖": 9843,
      "##뗐": 9844,
      "##뻤": 9845,
      "##順": 9846,
      "##、": 9847,
      "##굶": 9848,
      "##뱉": 9849,
      "##텨": 9850,
      "##月": 9851,
      "##폈": 9852,
      "##끽": 9853,
      "##땄": 9854,
      "##臣": 9855,
      "##틋": 9856,
      "##띈": 9857,
      "##`": 9858,
      "##年": 9859,
      "##맏": 9860,
      "##늙": 9861,
      "##敎": 9862,
      "##벚": 9863,
      "##낡": 9864,
      "##史": 9865,
      "##씌": 9866,
      "##싣": 9867,
      "##엎": 9868,
      "##꿰": 9869,
      "##善": 9870,
      "##뺏": 9871,
      "##母": 9872,
      "##탤": 9873,
      "##엮": 9874,
      "##꿇": 9875,
      "##덟": 9876,
      "##얇": 9877,
      "##흩": 9878,
      "##팰": 9879,
      "##靑": 9880,
      "##꾀": 9881,
      "##닦": 9882,
      "##탰": 9883,
      "##뛴": 9884,
      "##뜯": 9885,
      "##몄": 9886,
      "##넸": 9887,
      "##얹": 9888,
      "##뻗": 9889,
      "##굵": 9890,
      "##밌": 9891,
      "##갇": 9892,
      "##횟": 9893,
      "##꽂": 9894,
      "##옳": 9895,
      "##・": 9896,
      "##잦": 9897,
      "##―": 9898,
      "##쐐": 9899,
      "##샀": 9900,
      "##짙": 9901,
      "##됩": 9902,
      "##書": 9903,
      "##딪": 9904,
      "##낚": 9905,
      "##깥": 9906,
      "##볍": 9907,
      "##낯": 9908,
      "##눴": 9909,
      "##꿨": 9910,
      "##퀄": 9911,
      "##앓": 9912,
      "##뭔": 9913,
      "##＂": 9914,
      "##닿": 9915,
      "##』": 9916,
      "##美": 9917,
      "##갚": 9918,
      "##뚝": 9919,
      "##녔": 9920,
      "##뤘": 9921,
      "##뚫": 9922,
      "##꼼": 9923,
      "##뽐": 9924,
      "##팎": 9925,
      "##王": 9926,
      "##日": 9927,
      "##릎": 9928,
      "##휩": 9929,
      "##|": 9930,
      "##꼈": 9931,
      "##싫": 9932,
      "##괜": 9933,
      "##붉": 9934,
      "##」": 9935,
      "##묶": 9936,
      "##컸": 9937,
      "##캘": 9938,
      "##씀": 9939,
      "##걷": 9940,
      "##낳": 9941,
      "##굳": 9942,
      "##똑": 9943,
      "##*": 9944,
      "##닫": 9945,
      "##녁": 9946,
      "##;": 9947,
      "##꺾": 9948,
      "##+": 9949,
      "##낌": 9950,
      "##읽": 9951,
      "##쏟": 9952,
      "##”": 9953,
      "##“": 9954,
      "##쌓": 9955,
      "##앉": 9956,
      "##맺": 9957,
      "##젊": 9958,
      "##늦": 9959,
      "##뽑": 9960,
      "##〉": 9961,
      "##>": 9962,
      "##옮": 9963,
      "##잃": 9964,
      "##깊": 9965,
      "##=": 9966,
      "##‘": 9967,
      "##’": 9968,
      "##떻": 9969,
      "##!": 9970,
      "##[": 9971,
      "##]": 9972,
      "##넣": 9973,
      "##_": 9974,
      "##멤": 9975,
      "##켰": 9976,
      "##섰": 9977,
      "##웠": 9978,
      "##얻": 9979,
      "##…": 9980,
      "##펼": 9981,
      "##/": 9982,
      "##맡": 9983,
      "##?": 9984,
      "##:": 9985,
      "##》": 9986,
      "##찾": 9987,
      "##맞": 9988,
      "##~": 9989,
      "##많": 9990,
      "##%": 9991,
      "##-": 9992,
      "##·": 9993,
      "##)": 9994,
      "##(": 9995,
      "##'": 9996,
      "##\"": 9997,
      "##,": 9998,
      "##.": 9999,
      "!": 10000,
      "#": 10001,
      "$": 10002,
      "&": 10003,
      "*": 10004,
      "+": 10005,
      ";": 10006,
      "<": 10007,
      "=": 10008,
      ">": 10009,
      "@": 10010,
      "\\": 10011,
      "^": 10012,
      "`": 10013,
      "e": 10014,
      "g": 10015,
      "i": 10016,
      "j": 10017,
      "k": 10018,
      "l": 10019,
      "n": 10020,
      "o": 10021,
      "q": 10022,
      "r": 10023,
      "u": 10024,
      "v": 10025,
      "x": 10026,
      "y": 10027,
      "z": 10028,
      "{": 10029,
      "|": 10030,
      "}": 10031,
      "ㄱ": 10032,
      "ㄲ": 10033,
      "##ㄲ": 10034,
      "ㄳ": 10035,
      "##ㄳ": 10036,
      "ㄴ": 10037,
      "ㄵ": 10038,
      "##ㄵ": 10039,
      "ㄶ": 10040,
      "##ㄶ": 10041,
      "ㄷ": 10042,
      "ㄸ": 10043,
      "##ㄸ": 10044,
      "ㄹ": 10045,
      "ㄺ": 10046,
      "##ㄺ": 10047,
      "ㄻ": 10048,
      "##ㄻ": 10049,
      "ㄼ": 10050,
      "##ㄼ": 10051,
      "ㄽ": 10052,
      "##ㄽ": 10053,
      "ㄾ": 10054,
      "##ㄾ": 10055,
      "ㄿ": 10056,
      "##ㄿ": 10057,
      "ㅀ": 10058,
      "##ㅀ": 10059,
      "ㅁ": 10060,
      "##ㅁ": 10061,
      "ㅂ": 10062,
      "##ㅂ": 10063,
      "ㅃ": 10064,
      "##ㅃ": 10065,
      "ㅄ": 10066,
      "##ㅄ": 10067,
      "ㅅ": 10068,
      "ㅆ": 10069,
      "##ㅆ": 10070,
      "ㅇ": 10071,
      "ㅈ": 10072,
      "ㅉ": 10073,
      "##ㅉ": 10074,
      "ㅊ": 10075,
      "##ㅊ": 10076,
      "ㅋ": 10077,
      "ㅌ": 10078,
      "##ㅌ": 10079,
      "ㅍ": 10080,
      "##ㅍ": 10081,
      "ㅎ": 10082,
      "ㅏ": 10083,
      "##ㅏ": 10084,
      "ㅐ": 10085,
      "##ㅐ": 10086,
      "ㅑ": 10087,
      "##ㅑ": 10088,
      "ㅒ": 10089,
      "##ㅒ": 10090,
      "ㅓ": 10091,
      "##ㅓ": 10092,
      "ㅔ": 10093,
      "##ㅔ": 10094,
      "ㅕ": 10095,
      "##ㅕ": 10096,
      "ㅖ": 10097,
      "##ㅖ": 10098,
      "ㅗ": 10099,
      "##ㅗ": 10100,
      "ㅘ": 10101,
      "##ㅘ": 10102,
      "ㅙ": 10103,
      "##ㅙ": 10104,
      "ㅚ": 10105,
      "##ㅚ": 10106,
      "ㅛ": 10107,
      "##ㅛ": 10108,
      "ㅜ": 10109,
      "##ㅜ": 10110,
      "ㅝ": 10111,
      "##ㅝ": 10112,
      "ㅞ": 10113,
      "##ㅞ": 10114,
      "ㅟ": 10115,
      "##ㅟ": 10116,
      "ㅠ": 10117,
      "ㅡ": 10118,
      "ㅢ": 10119,
      "##ㅢ": 10120,
      "ㅣ": 10121,
      "ᄀ": 10122,
      "##ᄀ": 10123,
      "ᄁ": 10124,
      "##ᄁ": 10125,
      "ᄂ": 10126,
      "##ᄂ": 10127,
      "ᄃ": 10128,
      "##ᄃ": 10129,
      "ᄄ": 10130,
      "##ᄄ": 10131,
      "ᄅ": 10132,
      "##ᄅ": 10133,
      "ᄆ": 10134,
      "##ᄆ": 10135,
      "ᄇ": 10136,
      "##ᄇ": 10137,
      "ᄈ": 10138,
      "##ᄈ": 10139,
      "ᄉ": 10140,
      "##ᄉ": 10141,
      "ᄊ": 10142,
      "##ᄊ": 10143,
      "ᄋ": 10144,
      "##ᄋ": 10145,
      "ᄌ": 10146,
      "##ᄌ": 10147,
      "ᄍ": 10148,
      "##ᄍ": 10149,
      "ᄎ": 10150,
      "##ᄎ": 10151,
      "ᄏ": 10152,
      "##ᄏ": 10153,
      "ᄐ": 10154,
      "##ᄐ": 10155,
      "ᄑ": 10156,
      "##ᄑ": 10157,
      "ᄒ": 10158,
      "##ᄒ": 10159,
      "ᅡ": 10160,
      "##ᅡ": 10161,
      "ᅢ": 10162,
      "##ᅢ": 10163,
      "ᅣ": 10164,
      "##ᅣ": 10165,
      "ᅤ": 10166,
      "##ᅤ": 10167,
      "ᅥ": 10168,
      "##ᅥ": 10169,
      "ᅦ": 10170,
      "##ᅦ": 10171,
      "ᅧ": 10172,
      "##ᅧ": 10173,
      "ᅨ": 10174,
      "##ᅨ": 10175,
      "ᅩ": 10176,
      "##ᅩ": 10177,
      "ᅪ": 10178,
      "##ᅪ": 10179,
      "ᅫ": 10180,
      "##ᅫ": 10181,
      "ᅬ": 10182,
      "##ᅬ": 10183,
      "ᅭ": 10184,
      "##ᅭ": 10185,
      "ᅮ": 10186,
      "##ᅮ": 10187,
      "ᅯ": 10188,
      "##ᅯ": 10189,
      "ᅰ": 10190,
      "##ᅰ": 10191,
      "ᅱ": 10192,
      "##ᅱ": 10193,
      "ᅲ": 10194,
      "##ᅲ": 10195,
      "ᅳ": 10196,
      "##ᅳ": 10197,
      "ᅴ": 10198,
      "##ᅴ": 10199,
      "ᅵ": 10200,
      "##ᅵ": 10201,
      "ᆨ": 10202,
      "##ᆨ": 10203,
      "ᆩ": 10204,
      "##ᆩ": 10205,
      "ᆪ": 10206,
      "##ᆪ": 10207,
      "ᆫ": 10208,
      "##ᆫ": 10209,
      "ᆬ": 10210,
      "##ᆬ": 10211,
      "ᆭ": 10212,
      "##ᆭ": 10213,
      "ᆮ": 10214,
      "##ᆮ": 10215,
      "ᆯ": 10216,
      "##ᆯ": 10217,
      "ᆰ": 10218,
      "##ᆰ": 10219,
      "ᆱ": 10220,
      "##ᆱ": 10221,
      "ᆲ": 10222,
      "##ᆲ": 10223,
      "ᆳ": 10224,
      "##ᆳ": 10225,
      "ᆴ": 10226,
      "##ᆴ": 10227,
      "ᆵ": 10228,
      "##ᆵ": 10229,
      "ᆶ": 10230,
      "##ᆶ": 10231,
      "ᆷ": 10232,
      "##ᆷ": 10233,
      "ᆸ": 10234,
      "##ᆸ": 10235,
      "ᆹ": 10236,
      "##ᆹ": 10237,
      "ᆺ": 10238,
      "##ᆺ": 10239,
      "ᆻ": 10240,
      "##ᆻ": 10241,
      "ᆼ": 10242,
      "##ᆼ": 10243,
      "ᆽ": 10244,
      "##ᆽ": 10245,
      "ᆾ": 10246,
      "##ᆾ": 10247,
      "ᆿ": 10248,
      "##ᆿ": 10249,
      "ᇀ": 10250,
      "##ᇀ": 10251,
      "ᇁ": 10252,
      "##ᇁ": 10253,
      "ᇂ": 10254,
      "##ᇂ": 10255,
      "£": 10256,
      "®": 10257,
      "µ": 10258,
      "Å": 10259,
      "Æ": 10260,
      "È": 10261,
      "É": 10262,
      "Ö": 10263,
      "Þ": 10264,
      "à": 10265,
      "á": 10266,
      "â": 10267,
      "ã": 10268,
      "å": 10269,
      "æ": 10270,
      "ç": 10271,
      "è": 10272,
      "é": 10273,
      "ê": 10274,
      "ë": 10275,
      "ì": 10276,
      "í": 10277,
      "î": 10278,
      "ï": 10279,
      "ñ": 10280,
      "ò": 10281,
      "ó": 10282,
      "ô": 10283,
      "õ": 10284,
      "ø": 10285,
      "ù": 10286,
      "ú": 10287,
      "ü": 10288,
      "þ": 10289,
      "ā": 10290,
      "ă": 10291,
      "ą": 10292,
      "č": 10293,
      "ē": 10294,
      "ė": 10295,
      "ę": 10296,
      "ğ": 10297,
      "ı": 10298,
      "ĵ": 10299,
      "ł": 10300,
      "ń": 10301,
      "ŋ": 10302,
      "ō": 10303,
      "ś": 10304,
      "ş": 10305,
      "Š": 10306,
      "ū": 10307,
      "ų": 10308,
      "ǎ": 10309,
      "ǐ": 10310,
      "ǒ": 10311,
      "ǔ": 10312,
      "ǣ": 10313,
      "Ǫ": 10314,
      "ǫ": 10315,
      "ɑ": 10316,
      "ɔ": 10317,
      "ɛ": 10318,
      "ɜ": 10319,
      "ɪ": 10320,
      "ɴ": 10321,
      "ɾ": 10322,
      "ʁ": 10323,
      "ʃ": 10324,
      "ʊ": 10325,
      "ʒ": 10326,
      "ʔ": 10327,
      "ʰ": 10328,
      "ʿ": 10329,
      "ˈ": 10330,
      "ˌ": 10331,
      "˙": 10332,
      "ˠ": 10333,
      "̯": 10334,
      "Ά": 10335,
      "Έ": 10336,
      "Β": 10337,
      "Γ": 10338,
      "Δ": 10339,
      "Ε": 10340,
      "Ζ": 10341,
      "Κ": 10342,
      "Λ": 10343,
      "Μ": 10344,
      "Π": 10345,
      "Σ": 10346,
      "ά": 10347,
      "έ": 10348,
      "ή": 10349,
      "ί": 10350,
      "γ": 10351,
      "δ": 10352,
      "θ": 10353,
      "μ": 10354,
      "τ": 10355,
      "υ": 10356,
      "ϊ": 10357,
      "ό": 10358,
      "ύ": 10359,
      "ώ": 10360,
      "А": 10361,
      "Б": 10362,
      "В": 10363,
      "Г": 10364,
      "Д": 10365,
      "Е": 10366,
      "И": 10367,
      "К": 10368,
      "Л": 10369,
      "М": 10370,
      "Н": 10371,
      "О": 10372,
      "П": 10373,
      "Р": 10374,
      "С": 10375,
      "Т": 10376,
      "У": 10377,
      "Ч": 10378,
      "Ю": 10379,
      "а": 10380,
      "б": 10381,
      "в": 10382,
      "г": 10383,
      "д": 10384,
      "е": 10385,
      "ж": 10386,
      "з": 10387,
      "и": 10388,
      "й": 10389,
      "к": 10390,
      "л": 10391,
      "м": 10392,
      "н": 10393,
      "о": 10394,
      "п": 10395,
      "р": 10396,
      "с": 10397,
      "т": 10398,
      "у": 10399,
      "ф": 10400,
      "х": 10401,
      "ц": 10402,
      "ч": 10403,
      "ш": 10404,
      "ъ": 10405,
      "ы": 10406,
      "ь": 10407,
      "э": 10408,
      "ю": 10409,
      "я": 10410,
      "ḥ": 10411,
      "ẓ": 10412,
      "Ấ": 10413,
      "ầ": 10414,
      "ậ": 10415,
      "ễ": 10416,
      "ệ": 10417,
      "ố": 10418,
      "ἀ": 10419,
      "ἐ": 10420,
      "ἔ": 10421,
      "Ἑ": 10422,
      "Ἴ": 10423,
      "ὑ": 10424,
      "ὒ": 10425,
      "ὕ": 10426,
      "ὰ": 10427,
      "ὶ": 10428,
      "ᾶ": 10429,
      "ῶ": 10430,
      "‑": 10431,
      "―": 10432,
      "‘": 10433,
      "’": 10434,
      "„": 10435,
      "†": 10436,
      "․": 10437,
      "′": 10438,
      "″": 10439,
      "⁴": 10440,
      "€": 10441,
      "℃": 10442,
      "℉": 10443,
      "ℓ": 10444,
      "Ⅲ": 10445,
      "Ⅳ": 10446,
      "Ⅵ": 10447,
      "⇒": 10448,
      "∂": 10449,
      "∑": 10450,
      "−": 10451,
      "≈": 10452,
      "≪": 10453,
      "≫": 10454,
      "⑤": 10455,
      "⑧": 10456,
      "⑨": 10457,
      "⑩": 10458,
      "⑴": 10459,
      "⑵": 10460,
      "⑶": 10461,
      "⑷": 10462,
      "⑸": 10463,
      "⑺": 10464,
      "⑻": 10465,
      "●": 10466,
      "☉": 10467,
      "♭": 10468,
      "♯": 10469,
      "々": 10470,
      "〜": 10471,
      "ヘ": 10472,
      "ㇼ": 10473,
      "㙫": 10474,
      "㝡": 10475,
      "㦳": 10476,
      "㺚": 10477,
      "丁": 10478,
      "丈": 10479,
      "与": 10480,
      "丑": 10481,
      "且": 10482,
      "丕": 10483,
      "丞": 10484,
      "両": 10485,
      "两": 10486,
      "並": 10487,
      "丹": 10488,
      "乘": 10489,
      "乞": 10490,
      "书": 10491,
      "乱": 10492,
      "亀": 10493,
      "争": 10494,
      "于": 10495,
      "互": 10496,
      "井": 10497,
      "交": 10498,
      "亥": 10499,
      "亦": 10500,
      "亨": 10501,
      "京": 10502,
      "亶": 10503,
      "什": 10504,
      "仇": 10505,
      "今": 10506,
      "付": 10507,
      "仙": 10508,
      "仰": 10509,
      "仲": 10510,
      "伋": 10511,
      "伍": 10512,
      "伎": 10513,
      "伐": 10514,
      "休": 10515,
      "会": 10516,
      "伝": 10517,
      "伯": 10518,
      "伴": 10519,
      "伸": 10520,
      "似": 10521,
      "伾": 10522,
      "但": 10523,
      "体": 10524,
      "何": 10525,
      "余": 10526,
      "佟": 10527,
      "佩": 10528,
      "佳": 10529,
      "佶": 10530,
      "佾": 10531,
      "侃": 10532,
      "來": 10533,
      "供": 10534,
      "依": 10535,
      "侯": 10536,
      "俄": 10537,
      "俊": 10538,
      "俔": 10539,
      "俗": 10540,
      "俠": 10541,
[...]
